/**
  ******************************************************************************
  * @file    lstm_model_data_params.c
  * @author  AST Embedded Analytics Research Platform
  * @date    Mon Feb 19 01:53:41 2024
  * @brief   AI Tool Automatic Code Generator for Embedded NN computing
  ******************************************************************************
  * Copyright (c) 2024 STMicroelectronics.
  * All rights reserved.
  *
  * This software is licensed under terms that can be found in the LICENSE file
  * in the root directory of this software component.
  * If no LICENSE file comes with this software, it is provided AS-IS.
  ******************************************************************************
  */

#include "lstm_model_data_params.h"


/**  Activations Section  ****************************************************/
ai_handle g_lstm_model_activations_table[1 + 2] = {
  AI_HANDLE_PTR(AI_MAGIC_MARKER),
  AI_HANDLE_PTR(NULL),
  AI_HANDLE_PTR(AI_MAGIC_MARKER),
};




/**  Weights Section  ********************************************************/
AI_ALIGNED(32)
const ai_u64 s_lstm_model_weights_array_u64[111249] = {
  0x3d0f9fb4bd9aa003U, 0x3d86f2663d40a657U, 0x3d2c4c0cbd9b4e2cU, 0xbccfbff43d25f6f3U,
  0xbd102f2dbb2da5f7U, 0x3cefe0163c48edd7U, 0xbde2e0a03d9b59a2U, 0xbd9b7cacbd453f0dU,
  0x3d816b32bdd88bfdU, 0x3d79b893bcc25703U, 0xbd954bb8bd699e83U, 0x3cd08064bb462a08U,
  0x3c572e1cbdf35d1cU, 0x3d850aa3bd556502U, 0x3d1023f8bde111e1U, 0xbda07759bdcd170aU,
  0xbdf5ba9ebbb500bbU, 0xbd1a2543bd4b96eeU, 0xbdd0f003bc3cc1d7U, 0xbc54fbd33c83a214U,
  0x3e19c6c93d4419dcU, 0x3d9271c03d145da9U, 0xbdc66605bd15f75dU, 0xbd3884323c3fecb2U,
  0x3dd9019b3da502eeU, 0x3cd98603bd18067cU, 0xbcba0ec13da048e8U, 0xbce97f8fbc3f7e5aU,
  0x3d14d9bbbda8d894U, 0xbd4890883bbc4a21U, 0xba421ee4bd22e0afU, 0xbce37d3cbc7c6e86U,
  0xbc400d773ddd5b65U, 0xbca76721bccdb9caU, 0x3cc7d9c03c19e610U, 0xbdd270f0bbe0df41U,
  0xbb026973bd1fc104U, 0xbdcf728e3d9e0444U, 0xbb5b5c163d038893U, 0xbd7fbe00bc1cc04cU,
  0xbd5ee906bd1665edU, 0xbc522f693c1470fdU, 0x3cf38bbbbc8d8326U, 0x3d4d597ebd52f678U,
  0x3d3a72fabc83750dU, 0x3c2cb2dfbcdea4fcU, 0xbd9c398abc2624cbU, 0x3d9b1e7bbdad23ceU,
  0x3bc3b7cbbbc84487U, 0xbd98c6dcbce38545U, 0x3e0cd4023d1d07c5U, 0xbd0b0d363c70cf77U,
  0xbc5d6074bcddd477U, 0xbbe70eedbcc94f31U, 0x3e0d85a1bd59238cU, 0x3dca613d3cfcbdc5U,
  0xbd8941503d7698cbU, 0x3d910a7a3c7a5b3cU, 0x3da373013be1e648U, 0x3cd925943d4fce97U,
  0xbc21c32b3e0bfdbcU, 0x3ca06d7e3e03b873U, 0xbc66e4913d3c7931U, 0xbddf98313c504c40U,
  0xbdc3be92bd8263feU, 0x3dbc375cbbec093cU, 0x3c9285c33c8db0d9U, 0x3e12ca383d99658bU,
  0x3d531aebbc4ad852U, 0x3d0b26833d341269U, 0xbd82a1be3c6b3ea6U, 0xbdcac9d2bdf09a6cU,
  0x3c52aca33d47e57aU, 0xbd3f5c60bd542ed8U, 0xbde25c613d17ac64U, 0x3ca9fa0ebdfe4bd8U,
  0x3d31c9243d3581fcU, 0x3de791093c0e11bdU, 0x3ce63f043de893e2U, 0xbc7eb29f3dac6fdaU,
  0xbddcce493c8bc83dU, 0x3d7c4eda3c49f734U, 0xbd8368b63d992960U, 0x3cbc7f75bcde685eU,
  0xbcfdcd91bd309ffaU, 0xbd74a6523d64727bU, 0x3ca06fd8bdbce18fU, 0xbcf0b4f83d4fdbffU,
  0x3d4111f5bdea57b3U, 0xbc8ee8a6bdea41aeU, 0x3d221e58bd1d6b28U, 0xbd779052bddfac66U,
  0x3d095a6c3d147a3fU, 0xbde347233dd59031U, 0x3db2eb483d3ccc4fU, 0x3d678f493dce4841U,
  0x3d63a31c3cb45037U, 0xbdf66cdebdb0adb0U, 0xbc98be33bd71cf39U, 0x3d9159843d3fa7c8U,
  0x3c72b837bc53da35U, 0x3ced83003d965523U, 0xbd9504203dec5a8dU, 0x3c44f1b53af8effdU,
  0xbdfaf1703ceeb3d3U, 0xbd6085f4bd293a69U, 0x3dc1fddf3dc050e3U, 0x3deeda4b3d9c7118U,
  0x3caebd1f3cba98a7U, 0xbb383ccfbdcabb08U, 0x3d8ba4f33df587e2U, 0xbd8dba4d3e1b0474U,
  0x3d5bbbd0bb9bb726U, 0x3d164d38bdd3d9c9U, 0x3db326683b95a5d7U, 0xbd45c9443c4f07c1U,
  0xbd9d8ba43db46b64U, 0x3d249fbdbc21bc02U, 0xbd98cf03bbab9020U, 0x3dcf21ce3c941ce2U,
  0xbc99af5639bff71eU, 0x3d4561d4bdc0f135U, 0xbdec2db23c8ecf2dU, 0xbde01553bc1de038U,
  0x3d0f1c16bd771a6bU, 0x3d3007f2bd44af5cU, 0xbce0e08ebbaa6370U, 0xbdafa0e6be0ba852U,
  0x3ccd7ee4bd949382U, 0xbd4d39aa3d1d803eU, 0xbd28511e3cb2fdf8U, 0x3b184346bb2dc877U,
  0xbd0a398abcbeea47U, 0x3ca305c33bf0e7b8U, 0xbddde97bbd537603U, 0xbca31207bdadc4f1U,
  0xbca544babc7c00e4U, 0xbddc5c33bce3cca2U, 0x3ca8fdf1bc923277U, 0xbc0200683d11a719U,
  0xbd78574c3d9512d7U, 0xbdc3c324bd9f1880U, 0x3ce6587d3d18e1f9U, 0xbc77e5d03d6590baU,
  0xbcc99b3ebc76138dU, 0xbd2bf7c43d8361b3U, 0x3d4983c63c87b477U, 0x3c981dcb3d4ed31cU,
  0xbd96484e3d3734faU, 0xbd7c72c1baecdd26U, 0x3db77d83bb3b50fbU, 0x3d98967d3d18f458U,
  0xbc1197133b948d2cU, 0x3dc358cd3d197b45U, 0x3d8094ec3d8210d0U, 0x3d33ea8abdfa02c8U,
  0x3b43d4593c1d6a54U, 0x3c99b1223d0725cdU, 0xbb7135173d130ae6U, 0x3e0bfa26ba761663U,
  0xbd5d8eefbd58f94aU, 0x3be41bbc3d219603U, 0xbdb7b6f4bc86f58bU, 0xbd1f2c35bdf42808U,
  0x3cec0f613dba1c52U, 0x3a6e6bdabd881baeU, 0x3dd5b673bcbc94d9U, 0xbd1394403d2ab4c0U,
  0x3d82cc483c273670U, 0x3c280770bd0c03afU, 0x3dbea4d63d091ad0U, 0x3dd808b4bd88f3f4U,
  0x3d829cc63e331c82U, 0x3d92c5cdbd35f26cU, 0x3d35c822bcf55c5fU, 0x3dd5feb23c66e1b5U,
  0x3d8edcd83d3db72eU, 0x3d6d5be63d689ccaU, 0x3daaf4203dc3b4dfU, 0xbe054eb1bdae7acbU,
  0xbdbb90853c7e9ac5U, 0xbd8d663cbd63a64aU, 0xbd123cd7bc4b5713U, 0x3da31875bd7bad55U,
  0xbdbb3eae3aac9143U, 0x3c7fec573c560e07U, 0x3d6c28973df9a197U, 0xbd345d3e3c3e4c06U,
  0x3c858359bd843765U, 0x3da87d913cd36482U, 0x3ddee1103d05f60cU, 0xbd435c4dbd761435U,
  0xbc4764363c33e438U, 0x3ca2481ebd214f4fU, 0x3d715b2f3a8e6881U, 0xbd955de93bb09149U,
  0x3d00ce29bd57c2eeU, 0xbd88c6e1bc81fd0bU, 0x3da029073d3abdc1U, 0xbc00bb31bcf84a36U,
  0xbc6972cc3dc1ba03U, 0x3be4edf0bddd9c7aU, 0x3bbae20cbdcd9b3cU, 0x3c4bb8493ccc71a3U,
  0x3d09145ebd320bffU, 0xbbe781023b2fc48aU, 0xbcaedddd3d2e555cU, 0x3ba1bc8c3e04ae1eU,
  0x3d635b833d8cd6f4U, 0x3bf0e86cbd6f4129U, 0xbcf216cdbd0d073bU, 0x3de20212bc00eb77U,
  0x3d90e6a53e01ac4eU, 0x3d99f1c43cf31670U, 0x3d86e9f6bd46a32cU, 0xbcb1f8973d5cc186U,
  0xbd846ea03cd3ce0cU, 0x3d05a4f6bccbd3bfU, 0xbd80f2f2bd88d3bcU, 0xbde2f9f13ccdce0fU,
  0x3d84df84bd23b5feU, 0xbda0293fbdb657ecU, 0x3d4b09e43d462068U, 0xbd4854ce3e14e5e9U,
  0x3d46650ebc36fae4U, 0x3d51d7173cf60da9U, 0x3ce67fdc3c96be19U, 0xbd28ce8d3c656816U,
  0xbd1fb10ebd0b5647U, 0xbd5b37dbbd40bdb3U, 0xbe0da77e3c51792dU, 0x3cde10363d8f4accU,
  0x3c6520963b546627U, 0x3d99a8b4bd359958U, 0x3d26a32abd3d434dU, 0xbd76dc253e0dc577U,
  0xbd8a2b1bbd1801b6U, 0x3d5cb2573dad3b10U, 0x3d3f76773cc86389U, 0xbd24b3cf3d819b44U,
  0xbdda248a3c47918fU, 0x3db9a7be3d5cde91U, 0x3d90707b3b436ac3U, 0xbcd0fb553da21fe8U,
  0xbd742d1fbc29f024U, 0x3d957eb9bcf2ded1U, 0x3da690a13d08133bU, 0xbd1d268a3dd5ba3eU,
  0xbe0519ac3ddadaffU, 0xbbf50375be0edce3U, 0x3d8da4643dfc8acaU, 0xbda2e7793d3e1494U,
  0x3dfd7573bd79c8eaU, 0xbd8210a13d5661ceU, 0xbd4d0fd83da8761fU, 0x3cf8640ebdf97ab1U,
  0xbbfbf2f23de11a33U, 0x3d8062c1bd6d5939U, 0xbda2ac743db450ffU, 0xbd51ab70bca22738U,
  0xbd04a57bbd897dcbU, 0xbd6a5ee13df3dee9U, 0xbd0709183c62b240U, 0xbc982e083d1f9a65U,
  0x3d111bde3d9d1093U, 0x3db388f0bcd6b3baU, 0xbde9e7553d7f659eU, 0x3e00d6f9bc0b3930U,
  0xbcccc6ca3ce3b483U, 0x3d56a779bdba3c53U, 0xbcd6c25bbcefb2a6U, 0x3c3fc9e93d31cc32U,
  0xbd4ad8ea3d8799c2U, 0xbd1ed491be17ce22U, 0xbd887147bd5e310fU, 0x3c832471bca207deU,
  0xbdc0d649bd75ead1U, 0x3d8b38be3ddbd13eU, 0xbc8e17b8bdf9e9bdU, 0x3d30a8ec3c858cfcU,
  0xbd16a6df3d19452cU, 0x3daef7eabe086a74U, 0xbd99daec3d68142aU, 0xbd8329ecbd808663U,
  0xbd82adea3d645962U, 0x3d5575cf3e1063edU, 0x3cfbc102bb9dab4bU, 0x3c3a58f53d946f69U,
  0xbb0e2fc2bd24f1cbU, 0x3a5df6053da13cb0U, 0xbd00ab763d93e0f0U, 0xbc07511abca8db69U,
  0x3d8f4f8ebd883a55U, 0x3cbf8a583e00a259U, 0xbda4ea3ebb93c25cU, 0xbd41171bbdb76fc9U,
  0x3d8b5f94bcc5e56dU, 0xbc8935533db230ebU, 0x3d86c2a1bb0a9d7bU, 0x3c8aea1c3bd5ddd7U,
  0xbda605d1bd8f187dU, 0xbd1065bb3d160a84U, 0x3caef55d3d3754abU, 0xbd42a01c3ca21750U,
  0xbb4ef448bd838208U, 0xbd9b3e103c68534dU, 0x3d60edbdbc232dfaU, 0xbd93db363d457832U,
  0xbdbb49e9bd32e78dU, 0xbce0e3fbbd07327eU, 0xbd92f8bd3cb67f41U, 0xbd613bb93d414d01U,
  0xbd2e2c7d3d07c5d2U, 0xbc82de5ebb8d8adfU, 0x3cb13480bd8233b9U, 0xbcb3822c3c820685U,
  0x3db45899bd494059U, 0xbcb33d7e3d09fe1aU, 0xbced34c3bc3990a9U, 0xbe1138493cddeac8U,
  0x3e06715d3e0318c3U, 0xbd49da4abdd7c547U, 0xba5292dfbd90ef0fU, 0xbc8a2b963c431c25U,
  0xbd4d2e8e3d6711e2U, 0x3d22e692386e3ebcU, 0xbad235793dfa7394U, 0x3d6a13c73c6efa73U,
  0x3da1e3c5bbe3ee23U, 0xbd72a81bbd6218e8U, 0xbda1eeaebbbcc185U, 0xbdd63069bd9a16feU,
  0xbd4c6ee13a5c0294U, 0xbcac5d12bd49fde9U, 0xbd3cb0ab3d7e895eU, 0xbc938f8b3da7870dU,
  0xbcab878dbcf09f18U, 0x3cf9b7403d3fbc12U, 0x3d578eda3bce2b16U, 0x3d175523bd22dbafU,
  0x3cce70023d0babccU, 0x3cf61593bd875a4bU, 0x3cc7e2ef3c07757eU, 0xbdb11806bda9c9e6U,
  0x3cdc480dbdb3d95cU, 0xbd035c29bcf0bd25U, 0xbdbd1cdc3e0a5896U, 0xbdc04291bd8e0a35U,
  0xbcc77678bd89b4aaU, 0x3d940bfcbd07201eU, 0xbd01ce9f3ce66024U, 0x3cb4c4d3bda90607U,
  0x3d27fd7f3db646afU, 0xbda4827dbcc66a56U, 0x3b90d0f0bd8c0908U, 0x3ce996e939c563d7U,
  0xbbe1c85c3bb262d9U, 0xbd64452dbdf56a71U, 0x3b96ffb93dc9db51U, 0x3d199627bdd1ab26U,
  0xbd92a07cbb8825aeU, 0x3de966c3bb908195U, 0x3d9b8e3b3ca79d0dU, 0xbd0bb32b3d0637fcU,
  0x3da82969bc3ba7c2U, 0xbcc46e543dfe88d7U, 0x3d4522c7bc5ca954U, 0x3d9427c93da7eb70U,
  0x3cffada23df8ebddU, 0x3dd9b7323dbf7f6bU, 0x3d54c57e3e00f003U, 0xbbbfac84bd95cdbaU,
  0xbb846eb6bd5d3b8aU, 0xbd972f96bda1562bU, 0xbc9cee453db2d660U, 0xbde78c30bbe1bebaU,
  0xbd820cf8bd13d698U, 0x3d3f620d3e026f41U, 0x3d36b335bdc7f0e9U, 0x3d85d0a6bbaa661cU,
  0x3df1a11b3c81074aU, 0x3d3e98613bc7ebccU, 0x3dd741c53dbbbf17U, 0x3d81fe3b3d83ad52U,
  0x3d263746bab4dc57U, 0x3daf854c3cf2b40aU, 0xbba86dfbbce2dfa9U, 0x3c7d95dfbd308e93U,
  0x3d8a1740bd301230U, 0x3d8503553d39c043U, 0x3dd147bf3bb9bf39U, 0x3df24fcebca9dec6U,
  0x3e16e2683de7dc2dU, 0xbdc7f1f33df817beU, 0x3d74b235bcfad60eU, 0xbd09df7c3d681422U,
  0x3d3076033dba7525U, 0xbc8ac03e3de55243U, 0xbd0bd8bdbd8bcfadU, 0x3cbea94b3948e03aU,
  0xbcf17c793dbf8183U, 0x3d3a4e55bc044075U, 0x3d2e3d74bd332f8eU, 0x3d57d32cbdd5c876U,
  0x3dace7173da73343U, 0x3abc2110bd2a62d1U, 0xbc07804abd7098e0U, 0xbd0a84bd3cddd933U,
  0x3cd3f7863cacc200U, 0xbc1214c53d04d59eU, 0xbdafc8553dc88f10U, 0x3c145cf3bde8a0e8U,
  0xbdb9d7e23d8fbbcaU, 0xbd591e75bccc1265U, 0x3d352a883d8fb26dU, 0xbcb7edf83da4800dU,
  0x3dccebf2bcfb2619U, 0x3d588e013d8fb89dU, 0xbd86068e3dd7776dU, 0xbdc7cd1fbb6e4093U,
  0x3b1b8e9fbb9e6715U, 0xbcb591803d6f8166U, 0xbdb296a9bcc35ec9U, 0xbd22cc263deef1cdU,
  0xbe1692afbb5a5a59U, 0x3c11c7f23e196ff9U, 0xbcad11d2bce73098U, 0xbc4c6219bd69ccafU,
  0x3c2a3624bdff3e45U, 0x3be753dc3c25ecc2U, 0xbe05fd2abdd95254U, 0x3c6d517a3cc64622U,
  0xbdc476073d330dacU, 0x3c4ec5abbd387cd6U, 0x3da2b7bf3dad100fU, 0x3ce48922bd97f69eU,
  0x3d17d225bd7a5201U, 0x3c63be363b030c4bU, 0x3d4e3664bbe62976U, 0x3bd48e2b3d763f05U,
  0xbc2ab8df3d33fd50U, 0xbd22991e3d4b123cU, 0x3d81d7e23c403b52U, 0xbd84caba3d59f29dU,
  0xbe0485fdbdb51a70U, 0xbcce8fd1bdcf1d7bU, 0x3d5217a1bc8337f2U, 0xbda29ca03daa6c38U,
  0x3d8b5e30bda9280fU, 0x3d9a4cbc3d22b4b9U, 0xbc845a96bba31e14U, 0x3c71c804bd908aeaU,
  0x3cf6aec6bd829470U, 0xbd98b1033dfd4ffbU, 0xbcade9cdbdc76bdbU, 0x3cd94f8d3df0251dU,
  0x3d68c7be3dac9f63U, 0x3db086b73cf6f801U, 0x3d6e55893dcbb507U, 0xbb9e6682bdf0101dU,
  0x3d3cd7243c8f640dU, 0xbcda6ec93b23eae2U, 0x3d843edd3d590decU, 0xbd859e8abd8453e6U,
  0x3d47edc6bddfa797U, 0xbd5758f8bbde4fceU, 0x3cc47f9dbcc7db6aU, 0x3d27ecbc3d00d8ddU,
  0xbcd086663d028fedU, 0x3dc6b8733c3d5786U, 0x3cc191e93d3f485eU, 0x3d928214bcb841d1U,
  0x3ce7a1a93d8bb4d7U, 0x3cb71e433d83ddf9U, 0xbc14327b3c8589bfU, 0xbd8f6a52bb74cfd0U,
  0xbd091a073d37e7eaU, 0x3c2765c63db08c5cU, 0x3d401243bb9b2777U, 0xbc55d71e3db7ade8U,
  0x3c769701bd589731U, 0xbd6edf45be05f925U, 0x3cedf638bca64762U, 0xbcc439cf3dc34a01U,
  0xbd13223d3ce3e4b7U, 0x3cbf4295bc46c967U, 0x3ce4e79d3daac4eaU, 0x3d2f56f83d94e384U,
  0x3d95e6953d29578fU, 0xbd8011acbd18b806U, 0x3cdd81dbbcda1c18U, 0xbd9e6248bda65ec4U,
  0x3d9c22503dcf1bcaU, 0xba69f1e23dbd2fa8U, 0x3d353c35bdd37709U, 0x3bf2c4f33dbe8296U,
  0x3d75310cbd766a15U, 0xbddbf32cbdbc03c9U, 0xbdb8bd2b3c4dcba0U, 0x3d01dce33d55c018U,
  0xbc99dba0bd52bd76U, 0x3dce84643d4c41c6U, 0x3c790b5d3d2b3033U, 0x3dc855d2bd3a3e47U,
  0xbd4b19213ddeff5eU, 0xbc1c9429bdc29a89U, 0xbc04c0543c9e4406U, 0x3da6d01e3d426868U,
  0xbc4ea052bc58e6deU, 0xbd58929abd965765U, 0x3d6cabc6bbecab79U, 0x3ca13730bcad49e9U,
  0xbccfa0dc3cde1d61U, 0x3b8c7079bdd64ad5U, 0xbdafe8443d446606U, 0xbcd6df863bc59faeU,
  0x3dc83fbb3d0a32d1U, 0xbd2a637a3d6da1b5U, 0xbcfe5926bcdf48ecU, 0xbd9ce7323ce25cceU,
  0x3d8587013ce8d5c6U, 0xbd6eb5eebc74f3f5U, 0x3c9332da3dd0d697U, 0xbdb687223cbfceabU,
  0xbd9270053d321eabU, 0xbc7439ee3d179390U, 0xbc4cd113bc9aa6c4U, 0x3da6bf9f3dc19ddaU,
  0x3d37712dbd0bc6c1U, 0x3dbbafbb3de6e867U, 0x3daf66403d238c27U, 0x3dbdaf7f3d3d1191U,
  0x3d98a2103d3ceb9fU, 0xbd28d1f5bd2ba074U, 0xbcf9249c3d6f103dU, 0xbd9cd9bcbb9128deU,
  0xbd3744cf3d8ecb9dU, 0xbde29a79bd29c661U, 0x3dd1408c3da085efU, 0x3cddafddbd80cb7bU,
  0xbd2a30763e077bd1U, 0x398e787e3ddf2641U, 0xbc35cdcd3dad1d86U, 0x3d1aceb83cb4f6aaU,
  0x3ccf3aef3d91396dU, 0xbdcb9e4abdcdcfdbU, 0xbcc43d5c3d441c56U, 0x3db8104d3c66f33eU,
  0xbd704adcbd82ee12U, 0x3dce261a3d8d0e32U, 0xbd401b9fbcf00308U, 0xbdaf9fb93d052be5U,
  0xbd5332af3dd98735U, 0x3b459dc8bd424bffU, 0x3d64f6fb3dca41a9U, 0x3dc7c281bc7c0f13U,
  0x3bb7ed4bbca29abcU, 0xbd75569f3d3d43d3U, 0xbd857a05bdafb68eU, 0x3cfa563f3d8e8ebbU,
  0xbd0ebccbbcb26633U, 0x3c3cb7a33de889c2U, 0x3ccd3cfa3d253eacU, 0x3d47b894bda670d2U,
  0x3c2da820bdaad43eU, 0x3bce4b01bb3fa960U, 0x3d1aa7353e01cc0bU, 0xbcb6b3ef3c8df47cU,
  0xbccf67e5bcd319e1U, 0xbdb676afbdd885b6U, 0xbceb0eadbd1c6ba3U, 0x3d6771e3bdacd85aU,
  0xbd116c5abc5fa08aU, 0x3c9f2b82bd25e983U, 0x3df93f103dafb362U, 0xbdad9d19bdba3f05U,
  0xbc9826babdf761e7U, 0xbded68e1bd888d67U, 0x3ce933c7bb18e838U, 0xbd319aefbdafaa6dU,
  0x3da2d01abd2d44a0U, 0xbb3ffb21bdbb3ae0U, 0x3ca0bb113d2ab41fU, 0xbe0217f93d1b736fU,
  0x3dd668753d9fe399U, 0xbd67f24bbd765568U, 0xbd8242cebd607df2U, 0x3d18834bbd4d2972U,
  0x3c677e38bd6f6d72U, 0x3c8c2581bd8eb661U, 0x3d06f3cf3db7fcd3U, 0xbddae5b93d9fdbd6U,
  0x3d5e578dbd6ff7ebU, 0xbc9d6d2dbcfa5b93U, 0xbbda9489bd3e48aeU, 0xbd9b97acbdd26a2cU,
  0x3cc41207bcf26736U, 0xbd5b01d23d96e6ffU, 0x3d7318eb3dae608aU, 0x3e19a8ad3db5d311U,
  0x3c7aa4c4bd46eb8cU, 0x3d8e94023cb34e38U, 0xbd69a0eb3e01813eU, 0xbd3dbb8e3d81f7e7U,
  0xbdb18b78bd4502feU, 0xbb5422a53d013771U, 0x3c3341043cd864f7U, 0xbde5bc373d9b0e6eU,
  0xbbd8d16ebd8bab20U, 0x3c374eb23dae3eeaU, 0xbc7f369fbe0296b7U, 0x3dcb41bd3d4cadacU,
  0xbd50d5f53dd964e5U, 0x3e01ab973bf026d3U, 0x3de71c6f3d5a3702U, 0x3d811d9fbbe30021U,
  0x3ca54b0a3d2e1addU, 0xbcaef481bbef7ce3U, 0x3c9fcf0cbd9a1f6bU, 0x3db526f33daa8335U,
  0xbdc0487abc8e99c7U, 0x3d20c7c13c8f332cU, 0xbd7ca557bc199769U, 0x3df624363db7b4ddU,
  0xbda8d622bd20f9b4U, 0xbc72ce0f3a990926U, 0x3e09fc17bca98a33U, 0xbdaa7f923db77a89U,
  0xbc7d8f363dc24515U, 0xbbcabf31bd997cc2U, 0xbd0c5fd0bd73dfb8U, 0xbd370fa1bd52a22fU,
  0x3d4ab9fa3db0b30aU, 0x3d13dd9fbd422a46U, 0x3ca6ada73c1208bcU, 0x3ca576843dd3e656U,
  0x3ca55f173ce3f0d9U, 0x3c0a214b3bded504U, 0xbd050788bcc7382fU, 0xbd91b1babdcf0fa8U,
  0xbde44e25bdc9c821U, 0xbc999d50be0dcf4bU, 0x3baef3223ca52050U, 0x3d54969c3aeb3b67U,
  0x3c20656dbd800208U, 0x3ac6dc863d0212c2U, 0xbd1d570cbd277b11U, 0xbd0dc88cbc10998dU,
  0x3d95051dbd0241b6U, 0x3b93d87ebbb17bdcU, 0x3cad50ef3dbc0d09U, 0x3c4e2398bdbff793U,
  0xbbf8cb84bd4b68c3U, 0xbccaa739bdd8395eU, 0xbb391bcebcd1e7f4U, 0x3c25418cbd6fea49U,
  0x3db024d3bd1899b9U, 0xbdb6089b3d102f08U, 0x3d8960a7bcf695e1U, 0x3c635d3abc3b122bU,
  0xbd957f97bda887d7U, 0x3d18cecd3d8776a6U, 0xbda024633da37205U, 0xbc1c1922bdc4c4fbU,
  0x3d916c863c036a66U, 0xbd0f327d3dfaf585U, 0x3cb44770bda059fbU, 0x3e0eb289bdbb1a61U,
  0x3c131b503e0fc911U, 0xbd8c9e1fbca4fa28U, 0x3c7670ae3d59fc61U, 0x3bc5fe093d841af3U,
  0x3e1969613cc2f92bU, 0xbcb5c7ca3ceafda6U, 0x3d036bf7bd936ce8U, 0xbdd8f52bbd60ad5cU,
  0x3de7291d3dd11519U, 0xbde5821bbd806dd3U, 0x3d5b4feb3c513314U, 0xbd0fdb93bc57f6ddU,
  0xbc5f78b53cd86da6U, 0xbc2a018ebbb9172aU, 0x3cf31ba2bbd8806cU, 0xbc2d96ed3b8b7d68U,
  0xba0fea703e03405fU, 0xbd83c9e6bd952ce1U, 0x3ca8753e3d0e6fc7U, 0x3dad3f143df2d04fU,
  0x3b623ac53db2073dU, 0xbc141d513dba9e5dU, 0xbc82d2403dc3b166U, 0x3c0350f43d6d0070U,
  0x3c8fbe283d34b6a8U, 0xbc292acfbd9b7ad3U, 0x3d20a4673d797ba1U, 0xbdf2e960bdbd464eU,
  0x3d7a14163cda1579U, 0xbd2fd61d3d980237U, 0xbc37b350bbfe0ef7U, 0x3cf517b0bba402c6U,
  0xbd99b5453dbfdc68U, 0x3d079d2a3cf9c33bU, 0xbd29d7d2bc31c9e5U, 0x3ca45f9c3cbc7fa5U,
  0xbd5f5f3bbc315ed8U, 0x3cf06effbdb1a408U, 0x3d3763c83d8508e2U, 0x3dba80d3bd8724e9U,
  0x3d1d101cbdac483bU, 0x3dadc3a83c0be699U, 0xbdc32d7a3c420fa3U, 0xbd1a616cbcb46581U,
  0xbc99297e3decd538U, 0xbd461dc5bdb5c7e0U, 0x3ce3aeec3d8962abU, 0x3d7687cf3c23a918U,
  0xbca3ffeebc8b40b1U, 0xbc01e98d3df57fc6U, 0x3d683212bdc1fb4eU, 0xbdd103123d3522b0U,
  0xbb78c4d2bd99aa18U, 0x3c87aca03da223a4U, 0xbc8d07ed3d7a138eU, 0xbcb54794bd2df696U,
  0x3c9a3bf63da8e751U, 0x39f336313ca8adafU, 0x3cb955c2bdd7a976U, 0xbdd49fc93c747527U,
  0x3db1ff0c3cca93a1U, 0x3da7a532bc7f6434U, 0x3d6cc504bd528a93U, 0x3cb933143d35b325U,
  0x3ca763a63d15f638U, 0xbe07bc983da05a35U, 0xbdbd477c3bec28aaU, 0x3daf27adbcbe5a5aU,
  0xbcf2ab8e3dba48c6U, 0x3d702f583df10011U, 0x3d0e8f63bcffc51dU, 0xbd3571f03db65d17U,
  0xbd7cfbcdbd752594U, 0x3c14b7903cd45fa4U, 0xbd94b037bd525550U, 0xbd1a7804bcb3ae74U,
  0xbd39a711bd5ae133U, 0xbcfd67b53d6d3cc0U, 0x3c16d2243d23d913U, 0x3d272e2f3d83bd34U,
  0xbd1ee6193df8d0d1U, 0xbcc9b5cb3c275fc4U, 0x3d3c9868bc792e02U, 0x3ba1345e3d27b5a9U,
  0xbcd94ee03d7c6947U, 0x3dc35f33bd1a4f94U, 0xbb90aa35bd44c4e7U, 0x3a46a3c7bd9c164aU,
  0x3d6645dbbd19e5ecU, 0xbcc90f433e1b6d38U, 0xbde9d6c8bc4388b4U, 0xbc0457423d1dee0dU,
  0xbcb3369d3cf5e976U, 0xbd65528b3dee4255U, 0x3c3e34003ca0ad01U, 0x3d3fc41cbdb36239U,
  0x3d21147bbd61a67aU, 0x3dafdb93bdab3528U, 0xbdcb53aebdddaec6U, 0xbced50173d36051aU,
  0xbd0100f23c1f1e49U, 0xbc0248a83d867345U, 0x3dac2fc93d0cfb05U, 0xbc9d65443d20ad61U,
  0xbc288225bd80facaU, 0xbcb29b1d3d200f37U, 0xbcfaf0b6bd3c6917U, 0x3c9f3219bd9e5f92U,
  0x3d6d79d33c8522aaU, 0xbd536bb23b8ec4bfU, 0xbdf8e1aabbf2b0c4U, 0x3d19e3b0bc958dbcU,
  0xbcc3fe593a243bc1U, 0x3dc5bd5d3de3938aU, 0xbdc6ab71bcdac62eU, 0x3c1cbbf6be339060U,
  0x3dc2b49fbca685b4U, 0x3dfd5d0f3cb8394aU, 0x3c4dd681bdf13457U, 0xbdcdbb583cbd9e29U,
  0x3c84a88f3d23a48aU, 0xbd420b793cba2261U, 0x3ca069cebc268328U, 0xbd32ebaf3d935cfbU,
  0x3d2018efbdfa0967U, 0x3ce5983e3d85902eU, 0xbdff422abb490420U, 0x3cdc8cb9bd9804e9U,
  0xbd3da57c3d0d99e6U, 0x3dcee875bcf15006U, 0xbd826b2cbcdea530U, 0xbcebbf983c8df7faU,
  0x3d152a0bbd409263U, 0xbd8cacc2bd247befU, 0xbd39ab37bd7dc034U, 0x3c0c4d9dbc8addf9U,
  0x3c07b45cbca00038U, 0x3d0d847d3d746832U, 0x3d3c0a6d3db65da0U, 0xbbd9acc4bb2fae21U,
  0xbdb6138a3d8127aaU, 0xbd99fbc13c8dba83U, 0xbdcfa37cbd9cd7eeU, 0x3d9fd531bd106781U,
  0xbdaf13473e0903aaU, 0x3c81190e3def5c10U, 0x3db93a573dcc6875U, 0x3d2e764a3d66c6daU,
  0xbdd2dd633bda934eU, 0xbcb9ee2d3a9639f5U, 0xbd2f9c213d73e144U, 0xbcc243c9bcba5077U,
  0xbd47f97dbd68ad14U, 0xbd1e3a91bd9d6671U, 0x3d51a614bd13e1abU, 0xbd9f277bbda0422aU,
  0x3c4005ae3cfa958bU, 0xbbb0be533e0a1aa3U, 0x3c44a941bb97f654U, 0xbd1d19523d537b08U,
  0xbd231dfdbdcd77aaU, 0xbd0f730b3d63af1eU, 0x3986519cbd0c9b93U, 0x3d71c8ec3d37e2caU,
  0x3db5a006bbdb7c45U, 0xbdad36343d95836cU, 0x3d0dcf91bd9948b6U, 0x3bf800b23d3fdacaU,
  0x3d2b73333b383cfaU, 0x3de2f7b23b0b5373U, 0xbc9fe924bc649463U, 0xbd700db6bb50278fU,
  0x3bbe2f913cfe5c89U, 0xbd116d93bd535846U, 0xbc4205113bf63028U, 0x3d502c403d3e56b1U,
  0xbd0d9efdbc29bbbaU, 0xbd54dccf3d5a7631U, 0x3d2d259b3d15dbe3U, 0x3c050fb0bcdb936dU,
  0xbd30a41bbdb15236U, 0x3d1d6cd83c0993b5U, 0xbcfa2c1c3d3cb961U, 0x3dc7f0f23d294ccfU,
  0x3c0ea14b3b9611c3U, 0x3da426ebbc955c33U, 0x3d85f3ed3c934ff0U, 0xbd92dd1bbd918a16U,
  0xbd18795b3cdb1c02U, 0xbd83e535bd6b0acbU, 0x3d5c74353d2cbb66U, 0x3d1864ccbcce5d88U,
  0xbe01808ebd20a231U, 0x3d6ec2df3dd3f164U, 0xbd74cc3c3dd9a7daU, 0xbe088800bc43ac54U,
  0xbd89558abd0f8ae6U, 0xbda81e53bc9ffda8U, 0x3dab6ad43e03d9b6U, 0x3db67f263d55b332U,
  0x3d2b2963bca2714cU, 0x3c4585bd3d83a0d2U, 0x3df685253e03d327U, 0x3d87c9933d99fe98U,
  0xbd31a77d3d240985U, 0x3d8eb69bbd8df937U, 0xbd25e1dc3bdfe370U, 0xbc52fd74bca4bfd1U,
  0xbd833c1fbc1bd1d4U, 0xbe09a4ea3c3ed9fdU, 0xbc7e4cbcbcdd088fU, 0xbc8933c93dd133cbU,
  0xbddf3a2abdcabefdU, 0x3dd826d93e16184cU, 0xbc3e8afcbb55a385U, 0x3cd9c7403d5203d2U,
  0x3ce8fdbabd13b00dU, 0xbd5e44c23dd4abe4U, 0xbc80dab8bd4a4fd7U, 0xbb2f98c83d19b26aU,
  0xbce70068bde287b6U, 0x3d1cb7f3bd3a2ed2U, 0xbd658b08bdb6d66fU, 0x3d93b7993dfc5efdU,
  0xbd95e4f73c74cd58U, 0xbd9b6ee8bd4a76e5U, 0x3d3eff9d3d970ef1U, 0xbc92b9f63c549d02U,
  0x3baaf56fbd574060U, 0xbd7dd71abd219e2aU, 0x3dc2e67abd89b2f4U, 0x3d07cd473d922939U,
  0xbda7728ebe1ada55U, 0xbd9ddfe33ccc036aU, 0xbc0e5a223dbed2e0U, 0xbb30d2f3bdc86ca7U,
  0xbbb928f83d8eed2dU, 0xbd15c76b3cda2dc3U, 0xbd45f602bd4197e2U, 0xbdde361bbd5d3dbeU,
  0x3d5df900bd7da07dU, 0xbd7b7f763d1cbfdbU, 0xbcf1ee383dcb6b16U, 0xbdb63b2bbde06aecU,
  0xbd9e3920be12b71bU, 0xbd29d89dbdf0ace8U, 0x3b3872ce3c671958U, 0x3d9670163c9d8253U,
  0xbd716c81bdb951bdU, 0x3d0fffd33d92a509U, 0xbc52116bbd4f1573U, 0x3d4507d13cbda3b3U,
  0xbab238fcb9df973bU, 0xbdce55b4bc02a820U, 0x3d899a693c35823dU, 0xbd219e893d8a5921U,
  0x3df13af33d98df9bU, 0xbe1028723c29662fU, 0xbcdb2d37bcee2c5bU, 0xbd8b8123bd96a411U,
  0x3c2b84a7bc8ebb84U, 0x3de830a43d60051bU, 0xbda53547bd0959abU, 0xbc5e17bd3d4ccd09U,
  0x3dd1307d3dda557dU, 0xbd23bf503d044a88U, 0x3e0c248c3dfea3e8U, 0xbd5b9d1ebdf7b629U,
  0x3b3aaaacbb0be0e1U, 0xbd33c48bbd03caceU, 0xbd06cb2039b0f832U, 0xbd918dda3daa82cbU,
  0x3d0cc6ef3cfe9d71U, 0x3c9607633ca040c9U, 0xbdb6172f3d403052U, 0xbd0fb39abd8293b8U,
  0xbd6a52403bbc7c80U, 0x3d0bf5b03de3db82U, 0x3bea73bd3d34c0eeU, 0x3de25bcdbd6499e5U,
  0xbd6995dbbd67ade8U, 0x3d59cea73d4d2f5aU, 0x3da600b7bd7682c6U, 0xbcea30fa3d99c6c0U,
  0x3cf6ed113ded9f83U, 0x3d6479f63dd80eacU, 0xbde5f3433d44cb8eU, 0xbd979f2abdc58624U,
  0x3c2456d2bce43747U, 0x3c8593b8bd172c9fU, 0x3d915cdc3d1c4ea0U, 0x3dd2641cbd33e324U,
  0x3d6537f7bd33bc3aU, 0x3dae2de4bce9abe5U, 0x3cc01f903cbdb441U, 0x3d0889853dd04aa8U,
  0x3de9d8463ccbede5U, 0x3d1b287ebcda47f8U, 0x3dad4af33db63963U, 0x3db80334bc300fd9U,
  0xbb2526efbd1cac00U, 0xbce612a03cf2e56bU, 0xbd81c93a3cab725bU, 0x3b7c19a0bd7092c0U,
  0x3ccd47383d1fa1c4U, 0x3cc57156bc50ee31U, 0x3c2bd67b3d232584U, 0xbd7c823e3c0f5991U,
  0x3dd46f26bbcab27dU, 0x3dcd00a43daeee4aU, 0x3aa6b48bbca9287eU, 0x3d846ed23cc08885U,
  0xbd9f2a3bbd56be65U, 0xbd0af0233ccb7522U, 0x3d82847e3dc6f870U, 0x3ce10d31bcd9c8efU,
  0x3cb2f4eb3e10691eU, 0x3ccd71163d3f172cU, 0xbcd49f6f3a1b0ef3U, 0xbb964a3dbb7aea63U,
  0xbda3ecd3bd5df181U, 0xbdab28093d8b7f25U, 0xbd82d1cbbdeb1e96U, 0xbd4778a23d8a930eU,
  0x3d37d77bbbcd282bU, 0x3c002f22bd1ebdb1U, 0x3da31a413cb05b0fU, 0xbddbe5c9bb286abaU,
  0x3d01bb593c23430bU, 0xbcf33b7f3d389fc9U, 0xbc741c603c8697ceU, 0xbd041fc9bdb1c4a8U,
  0xbd24eda53d852f59U, 0xbd57c0bcbcbd8c32U, 0x3d4e0f3fbd3a639eU, 0x3d067d233d8ed6afU,
  0x3d9b40e93dc64808U, 0xbd8bfd53bda16940U, 0x3d4559abbd4531a6U, 0x3ce44b25bcd07ec2U,
  0x3c6dc2473d1d7a04U, 0xbb065de83d0a1d53U, 0xbd995b48bda32051U, 0x3c58ba183d6b9440U,
  0xbc128262bca5718cU, 0xbb81c3ea3d7c02f6U, 0xba81c7a93c8e2cf3U, 0xbc535a3dbcb26c7eU,
  0xbadf33d03d92064eU, 0x3d0b21f03ca35e3eU, 0xbd97022e3d50a2deU, 0x3dbae93a3ca8d3fdU,
  0x3d2aeb743dad9eb4U, 0xbda468633c9e3afaU, 0x3d0cb59dbd7f3680U, 0x3a0802ffbd82862fU,
  0x3cd1d1223c69f69eU, 0x3d9b582b3d85bf4cU, 0xbcf445643d5e96f6U, 0xbcbfe251bd8c3b65U,
  0xbd75cb7fbc1c4d21U, 0x3b966893bd1c203bU, 0x3d20f0123d06123dU, 0xbc43b00ebcc7b8b1U,
  0x3d108a663bbf0133U, 0xbcbf6fcf3b34661dU, 0x3dc905433dcc0594U, 0xbd6716763b96ecf5U,
  0xbcb9f0cebcf13067U, 0x3e00cb223da8fa93U, 0xbd52b64c3d3b5eedU, 0x3dbb21d33cec7abbU,
  0xbd10fb58bdcbb37aU, 0x3cf4c953bc88e336U, 0x3d7b86453c7db76eU, 0x3d687ace3d9ce4f7U,
  0x3cf03e623d8a3b1dU, 0x3d7459cdbd8d99b3U, 0xbe05e076bd9a68f8U, 0xbcb8ecc53c075368U,
  0xbe058155bd89ad93U, 0xbd9693b0bdfdb77cU, 0x3c76aa9fbd88901bU, 0x3c81a74ebbc979bbU,
  0x3d912ce0bc69db55U, 0x3d89d5653ddea7f9U, 0x3d2365aa39cc92f2U, 0xbc96fb5dbd49ac2bU,
  0x3ca6395abc7b38cdU, 0x3d0c616e3d9536baU, 0xbc6db5383d6c004cU, 0xbce31d0b3d865571U,
  0x3d3092f6bd417acfU, 0x3d7678a93dcd70e7U, 0xbd89a6733cefb0f0U, 0x3bda4f83bda93349U,
  0xbdaad4c7bb0910c0U, 0xbcb6d6c33d21def5U, 0xbdc3e8c9bd04fd27U, 0x3c87ab563cee3956U,
  0xbace824abca0eb03U, 0x3d1830083d6f0919U, 0xbd4b00a73c7a2cacU, 0xbc24e8c63dcfd470U,
  0xbcd3bf7f3db4544cU, 0x3dfb9ebb3dbf073cU, 0xbd673587bd436980U, 0x3d9663c5bcbde218U,
  0x3db919f33d59c0b2U, 0x3da15ce43da0a326U, 0x3c7d3fff3dd21a30U, 0x3c9e06a93d47daf0U,
  0x3b1532b9bdc527a0U, 0xbbffdd343b47f3f6U, 0xbdbd951dbd1b0cabU, 0x3d5cff23bd86bfcdU,
  0xbc83c8663dd56a2eU, 0xbc93f86d3d853aecU, 0x3afad442bd9e828dU, 0xbdc729d13cba274cU,
  0x3d0924dabdb39356U, 0xbb01e9ebbd2cc82eU, 0x3d2fde1fbd11842dU, 0x3cfff408bd502641U,
  0xbd6261b53dbc9336U, 0xbd02f6f73d7996f7U, 0x3d3fb505bd6f7700U, 0x3d1afe7e3d8a8a27U,
  0xbd7270d7bd3a9a02U, 0xbd05c08d3d510e25U, 0x3d97681dbd2c0c33U, 0xbd159970bd02181dU,
  0xbddb42f9bdd2b232U, 0xbdde8e06bcefd095U, 0x3ddfcecc3da092bdU, 0x3cdf53923d84944dU,
  0xbbffb3663d163747U, 0x3da655b4bd63eee0U, 0x3d22ec4bbd9f98dfU, 0x3d80dcf2bb3ec114U,
  0x3c7c9d46bc42ec87U, 0x3ca75a8c3c210b13U, 0xbc6093e6bc4e664cU, 0x3de540b43df5178eU,
  0xbd2e125bbc479090U, 0x3d220d813d312551U, 0x3d46ff2dbd800294U, 0x3d61dadebc1c3c7cU,
  0xbcc7f16c3df4e527U, 0xbd470bd33c02c1bcU, 0x3d845826bd51d24fU, 0xbd4d1eec3caa3d91U,
  0xbd18716abd88f4d8U, 0xbd2019e3bd02e77eU, 0xbbfaf7673d2c2824U, 0x3d918414bd8a48eaU,
  0x3d2db151bd33e951U, 0xbd642b5abd9de767U, 0x3d8dcef73dc403caU, 0xbd3e2d483d2c038dU,
  0x3d9b36443d852719U, 0xbd9eaa68bd964592U, 0xbcaf22a63d7e9f29U, 0x3def36ab3c36418eU,
  0xbcad89bb3d74a066U, 0x3d8bd0debcf68c3bU, 0x3d5dbe893c9c2b9cU, 0x3d88716b3d5501ffU,
  0xbc1db8003d188723U, 0x3db350b33cbd4516U, 0xbd3752643d46680cU, 0x3d6a1758bc8f2d4dU,
  0x3d192795bcf02ee0U, 0x3dae0df53d8d3c05U, 0xbdb1aad73d8cf802U, 0xbdbd278cbd6f3c5bU,
  0xbd46340fbdf77e9aU, 0x3c146d43bc77064dU, 0x3dddbb553cbeb747U, 0xbd2bd6bb3d6fd186U,
  0x3d275eab3cd32480U, 0x3d320b23bd87998dU, 0xbda6d6e7bbed1822U, 0x3c09b38b3e044936U,
  0xbcd8b12a3db0b4a8U, 0x3d547aab3d11b703U, 0xbda36e13bd989a48U, 0x3cc55ec53d5d63c6U,
  0xbd4e5666bb896a66U, 0x3dc2d85dbd4e4e99U, 0x3e1650283d2c1516U, 0x3df8189b3c696fb3U,
  0x3c623e203bc8192aU, 0xbc8ec120bb83e0f1U, 0x3d4f61e2bc9c6c00U, 0xbda906a0bcf5fca9U,
  0x3d8038babdb9fe30U, 0xbd1bf8f5bcb06eb8U, 0x3d265def3dddd923U, 0x3d0436003b91ab5cU,
  0x3c9adadf3d968f9fU, 0xbd92e28cbd205504U, 0x39ded8babd88ac9cU, 0x3d2940a43d648014U,
  0x3dec29cabd1bfe7bU, 0x3d8e80e93d8edc75U, 0x3ded5b7d3cda6b64U, 0xbd52bc15bd7219abU,
  0x3bff99ef3d01f3a7U, 0xbd18200bbd9de925U, 0xbd432346bd33cc3bU, 0x3d93b501bae7a315U,
  0xbd7314dd3cf90a31U, 0xbd8bb368bd7ff5edU, 0x3cfa0cee3c49ed6cU, 0x3d34ae4a3dd1f1d9U,
  0x3cc589473d65f584U, 0xbda09f9d3c3b4af9U, 0xbcc3e416bd68fee5U, 0xbd40cc31bda3b73cU,
  0x3d15032abd824ea8U, 0xbd2535633b568c8fU, 0x3d6d7cb2bd7a827fU, 0x3daf98343dbd3e94U,
  0xbc6f5fddbcf85747U, 0x3b9365023bf9f559U, 0x3da95439bd676288U, 0xbad0ddad3d595914U,
  0x3d3e9e20bdbf169cU, 0x3992e5793d025a52U, 0x3dca58033d910da8U, 0x3b85a7323da2d81aU,
  0xbcc751ba3d14832eU, 0xbd6973fe3d506a8aU, 0x3cab256c3df14d4fU, 0xbdb98440bce951b5U,
  0xbd8a86643d60cbbeU, 0xbd582b743da0e987U, 0xbd6db8e5bd8e4b94U, 0xbc8fb00d3dcbd075U,
  0x3d80e5073cee77aaU, 0x3d402adfbd5e2b00U, 0xbaac90c6bdc7f02eU, 0xbc48b2ed3d10a10dU,
  0x3c5ecd9d3d8779a6U, 0x3def999dbdb6551bU, 0x3d349ab83c8ccc09U, 0x3dbe52b63d175065U,
  0xbd87bf7dbd975e6fU, 0x3d286eea3d9fe3a5U, 0xbd20c002bd948318U, 0xbd5a93a0bcc74669U,
  0xbd69a2cdbd5f7693U, 0xbc22cc7ebd2f1af7U, 0x3d9c744c3d1baacaU, 0xbd0ab1a5bad9d7f7U,
  0x3aa989db3d4850ebU, 0x3d182de3bcdf8aacU, 0xbdcd8ba53b7f7ce3U, 0xbd21fdfebd7e0525U,
  0xbd83554fbce37cf7U, 0x3c8096fa3d39563aU, 0xbcdad22d3c6ced89U, 0x3d6a372bbca3ad7fU,
  0x3caf191bbda9cbc6U, 0xbdca92f0bd116226U, 0x3c13d9193c44f399U, 0x3da27be93cc227c9U,
  0xbd5e85313d6123a3U, 0x3d26da02b86395caU, 0xbda88c99bd61983bU, 0xbd4534283d04851aU,
  0x3d864f773d2e39d0U, 0xbd97afe43d231a46U, 0x3dbb35f33b2012e4U, 0xbd332be73d457fa4U,
  0xb9c3b2ecbd4d2c96U, 0xbdc7593cbdd098e9U, 0x3cfef50ebc865baaU, 0x3d1059f5bc665d4aU,
  0x3cd5ff483d4210b3U, 0x3d9451113df671e2U, 0xbb43836e3d152babU, 0xbd8f36bf3d207437U,
  0xbcab66583c7fc6c0U, 0xbd3805073ce62e0eU, 0xbc7a7b5fbb14814bU, 0x3d927da2bd03a90bU,
  0xbd75e1a8bd016e60U, 0x3c976067bcab71f9U, 0xbc9d07a03da4af1cU, 0xbd7b51353d800604U,
  0x3d06a9fb3d852183U, 0x3dee163f3cd094acU, 0xbd091309bc9093b3U, 0xbd9e0a543d7f96a4U,
  0x3cad85c9bdcdea78U, 0x3d95001e3d58c00bU, 0x3d79ea7abbf7fb64U, 0x3d9f447abc47a1e8U,
  0xbd7b43febcdf7e51U, 0x3d5182c73d78e3f9U, 0xbbcc7ccfbe210a3fU, 0x3cc219813dd3d7cdU,
  0xbcece42a3d003544U, 0xbd49281fbcd20238U, 0x3db76d913bb06467U, 0x3d91e8f63db8ef8bU,
  0x3d81484bbb8f3c74U, 0xbd06c3823d513c9dU, 0x3d3b720abbfbe72eU, 0xbc1561553d32c0b2U,
  0xbcb6556d3b66c8daU, 0x3c7bf0d23c3763b5U, 0x3d04515ebc796f56U, 0x3db4acb53d695494U,
  0x3c8c7dabbc336ff8U, 0x3c0049cebd39a820U, 0xbd552de2bd9c4ae4U, 0xbc9cff513dc4e016U,
  0x3da893f3bd7e63e3U, 0x3da7e09b3d7fb6cbU, 0x3d9d1cf3bcfe863cU, 0xbc806a6f3d803578U,
  0xbd2b5ea63d0f9927U, 0x3a45b55a3cc51b33U, 0xbce7a17ebdb540ecU, 0xbd8f5f36bd0465c4U,
  0x3ddbf1fd3abc4a26U, 0x3d802f113d5806d1U, 0x3db212e33d9e2cf4U, 0x3cb413903d61fa82U,
  0xbc823e5fbd454c1cU, 0xbda1b570bcfa39e4U, 0x3d28008e3d0d89f3U, 0x3c7312edbc110afdU,
  0xbc4b6085bcbdb79aU, 0xbd165fd9bbdd5836U, 0xbda6470dbb21835dU, 0x3cff82f83d6e5c85U,
  0x3c1f2269bda4b6afU, 0xbbe4c66f3d3836d1U, 0xbd292df63b3d6ce6U, 0x3d3048793c6f695aU,
  0xbd0e5a34bcda621cU, 0xbd404a9fbd95acbeU, 0xbc3f577cbd908a5bU, 0xbdae02493c808ce6U,
  0xbdb726543cd759e8U, 0xbc449f8fbd2f82b9U, 0x3d32394a3ae3e359U, 0xbd42ba4b3d3d0e67U,
  0xbd7b701dbdff1151U, 0x3d50b153bd4f73efU, 0x3dbb89b23d7ff17dU, 0xbaf20e45bc6af83fU,
  0x3d6115823db1bfa8U, 0xbd39df49bc93bdc4U, 0x3d89ba99ba9aba0eU, 0xbcde10df3d4d5fa7U,
  0x3db172c0bcf87a9eU, 0x3d4fd8943db7cb81U, 0xba837636bda61be9U, 0xbd99acc33d0753cdU,
  0x3d5dc5a2bd6c49f5U, 0x3dcb5c1e3d20d270U, 0x3ccde0733df9b520U, 0xbdcdd2373aa1c153U,
  0x3e0149b73d97622aU, 0x3d8bc4303dc1ada4U, 0xbd8d3568bd6ccc15U, 0x3c9aa390bd839e4bU,
  0xbcea2790bd81201fU, 0xbd5583c73db4e219U, 0x3dfa3b893d1e1f37U, 0x3d44be7a3dc599fcU,
  0x3db713e93ca4835eU, 0x3caa50163dcac642U, 0xbd4e41ffbc57928fU, 0x3cece7d43da29275U,
  0x3b9679cb3af5b704U, 0xbc7c09603dacc406U, 0x3d8f4f0d3bf2f447U, 0xbdabd78dbdb3759fU,
  0xbd115abfbd5ca2eeU, 0x3cbae5673d4d4aaeU, 0xbca615603d8384fdU, 0x3d21cb1b3d9cf7beU,
  0xbd6842d0bd686564U, 0x3d39a2c6bdbb7febU, 0xbcf3ecebbd309cc4U, 0xbd4b9c8b3d2cd43dU,
  0x3baad2d8bdf1e1e2U, 0xbd36b228bdebd3fdU, 0xbd185abd3d1b0afeU, 0x3d85ff6dbbb3daa6U,
  0x3d2f61833ca6898bU, 0xbdc7a61abc425ef7U, 0x3cec93adbdcb9f1cU, 0x3d949ff0bc0519d8U,
  0x3da605413d567203U, 0x3dc8557f3d74b12cU, 0xbdb7ebe239995bd5U, 0x3d907c613d2fb0aeU,
  0xbce8abb53dc76c11U, 0x3de4c3793dd45ff3U, 0x3d56ae993de819c6U, 0xbd03f1b6bd8d265bU,
  0x3d5b0212bcd89c3fU, 0xbce1a80dbda6fafdU, 0x3d9712873da31094U, 0x3d106b1f3bae6192U,
  0x3d4ce8f83cc0b866U, 0x3ca6637dbd8abbceU, 0xbd32aef43d8f43a1U, 0x3c34f15dbb81c9d6U,
  0xbd4432b83da438caU, 0xbc85c5a1ba048ce6U, 0xbd975c5fbb9b5d32U, 0x3d130105bde76716U,
  0x3d6546f6bc32c650U, 0x3dceba4c3d8c350aU, 0xbc92ed96bd9bfec1U, 0x3dae03333d1c1c82U,
  0x3cdc57c8bceb8990U, 0x3d178af43dd6fa6dU, 0x3c5993f43dd79c44U, 0x3d278ee53d50232dU,
  0x3cba01903d9dcc5cU, 0xbda316fe3d6862b8U, 0x3b9ddf31bd0279cbU, 0xbd8c3ad7bb7c4e61U,
  0x3ca356e1bce83af6U, 0xbc9df3c8bd54e405U, 0xbd349b023d6df4cbU, 0x3d72c8e43cc13703U,
  0x3da662683d6fa87eU, 0xbc7872dd3cd43276U, 0xbc1b73c5bd041dc9U, 0xbd835af73db4f29aU,
  0xbd546c0bbd952e32U, 0x3c22c7073ca8491eU, 0x3d0152d1bd1ec75aU, 0xbd76948c3db168a9U,
  0x3cadd6643c914e2dU, 0x3ce75a783bf24f2aU, 0x3d000a3b3c90da6dU, 0xbc4f15c9bda740e8U,
  0x3d7f14e43db8ef20U, 0xbcd7e3bb3d596f8fU, 0x3daa122d3dd2bd29U, 0x3dd5d5923db64ce3U,
  0xbd8c987c3d85bd48U, 0xbd89fdc2bd93d3dbU, 0xbdca380b3ca7519eU, 0x3d894b95bdb9cf61U,
  0x3d9c9d8abc3d13ccU, 0x3d383a70bd8d19b6U, 0x3d89cb80bdb6f546U, 0xbd4ec4a33d497b15U,
  0x3c8e9c233d10fb66U, 0x3d7d187fbd0f8dacU, 0xbd3af9c43d96e33fU, 0x3cbd2bf73d42046cU,
  0xbc10361d3d242c71U, 0x3cf5cffd3d8dc5beU, 0xbcf6c825bdccd518U, 0x3d43044e3d4f57c4U,
  0x3d0fb8f83cdf185aU, 0x3d12ca0a3d2b4f7eU, 0x3c5684c13c4acc7aU, 0xbc601642bd62d31bU,
  0xbc981b7cbd869cc4U, 0x3d4671893d92a583U, 0x3e0690e5bca47177U, 0x3dbf6e883dd432e3U,
  0x3c8f59d43cb12590U, 0x3d3c9c973d8e5b83U, 0xbd2248f43dbd1dbdU, 0x3c3b96ec3d571e9bU,
  0xbcb5de393da3b0f3U, 0x3cf3bfb6bccea31aU, 0xbd5df877bd0a170dU, 0x3d9c2d7bbd159d91U,
  0xbd492a0d3dda080eU, 0x3d86839abbbf2b97U, 0x3cda9596bc652728U, 0xbe06552cbe0029bdU,
  0xbd0ba5b5bd693569U, 0xbcdb079bbdb13edcU, 0x3da3dbd3bdb9e433U, 0xbd1f64a3bcccf9a4U,
  0x3dc641ac3da984a5U, 0x3d3e89343d2a7f19U, 0x3d47619b3deb26b7U, 0xbd2132bc3d864199U,
  0xbd940bc0bcdf4889U, 0xbd8260e1bd83d06dU, 0xbc52935f3df02062U, 0xbb23d5ae3c062acaU,
  0xbdce21073dae2466U, 0xbe00011dbda795fcU, 0xbd7deab23bf19a6eU, 0xbccde56dbc9bf876U,
  0xbd0bc1d13caa17aaU, 0x3c4cf096bd32480fU, 0xbda56398bdad17f1U, 0xbdac7094bd3d1082U,
  0x3d6ef262bdb7fcf7U, 0x3d69f9833d004a30U, 0xbd9a48553d56dc42U, 0x3c95f7babd6224b0U,
  0x3d3dbf933d0f37c0U, 0x3d1ec57c3d928f70U, 0xbc0fc0663dadfa0aU, 0x3d81f9a43d6740c8U,
  0x3d0fee9dbd81dde0U, 0x3d0e990d3c01baf6U, 0x3dc411f2bbf6d41eU, 0x3d80cba93d62ef78U,
  0xbb80c1583e0706aeU, 0xbd2416bf3b1d690aU, 0x3c79ea29bd802c82U, 0xbc3aebac3d4e88d7U,
  0x3c6959d23e010613U, 0x3c96db823d500774U, 0xbd411994bda17fc7U, 0xbd0bfffcbda5f2c1U,
  0x3c5678b93db41793U, 0x3c2279d83d4b0239U, 0xbce7c3f53d9f1604U, 0xbd633dc8bd70697cU,
  0xbda0b30bbdcb7046U, 0x3d603fe93d4e0aa9U, 0xbce022303d0cd8c7U, 0x3d0ba796bd120adbU,
  0xbcf5bb553d9c38e8U, 0xbd794984bda44df4U, 0x3d9d6e9c3c3900c0U, 0x3d9c533d3c910eecU,
  0xbd8224003d95f3f4U, 0xbda643d4bd954edaU, 0x3dba8d313dbc7e2dU, 0x3d3e801abbb1c835U,
  0xbb999275bc87b9c8U, 0xbcb23cfbbd57d152U, 0x3d8662b4bbd62273U, 0x3da386e7bc9782ecU,
  0xbdaf08163cae341cU, 0x3d4cda8abdb3452dU, 0xbd9a71183d05c4f4U, 0xbce08415bd39b979U,
  0xbba187afbd1257eeU, 0x3db0b7733c20f831U, 0x3dc6ce163db7684eU, 0x3d4fa2de3bd7d198U,
  0xbcac862c3dafa797U, 0xbd26fe6e3caf005aU, 0xbcfe53a73cf047d5U, 0xbd32b464bc3a5e46U,
  0xbd3dbb2bbd46737fU, 0x3d1da104bd3873baU, 0xbdc7b3d3bd940f38U, 0x3daf18f63cfa9d28U,
  0x3dcafe2c3dab66b8U, 0x3e0c29e53c9146ffU, 0x3d2920693d3184caU, 0xbdd0d23ebd8dc502U,
  0x3c88cca5bdf2c6c3U, 0x3d026ebabd412dedU, 0x3c2802543d229104U, 0x3cce2651bd150190U,
  0xbdb5b713bdcd80eeU, 0x3c949bafbc87537dU, 0x3d997dc33dec31d5U, 0x3cbd0b5abd0c5c48U,
  0x3bf2a2433dea7e58U, 0xbd1aa6a63cf11466U, 0xbd82b14ebd388f18U, 0x3d1c81853d462427U,
  0x3d14b153bd17f27eU, 0xbcabf34abddf7fe2U, 0xbd9c1327bd69bb8cU, 0x3d8d791e3d8b89ccU,
  0xbd7d19323d06f17bU, 0x3d6bd1973d887e70U, 0x3cbf72fcbd1cadb2U, 0xbc9cfbd33d373e37U,
  0xbcc7a026bc822d8bU, 0x3cf783c23d2c4932U, 0x3cec8b663d14c88eU, 0x3d7b735fbb35a3e1U,
  0x3c87a9aebc9cdc92U, 0xbda29390bc3ffb90U, 0xbbb9247b3cf3431cU, 0xbd8e7c75bd5f0fd4U,
  0x3d3cb1f4bd1a3d8aU, 0x3d19858abcbe9bf7U, 0x3da845763c12dc3cU, 0xbca66b503d9ec119U,
  0x3da5c973bd305a73U, 0xbd4785d0bcb61ae9U, 0x3da86e6b3d78b839U, 0x3d99fd8a3cef463bU,
  0xbc15f10f3dbacccdU, 0x3d964c453dd3b2a1U, 0xbd6a9ac8bd016269U, 0x3c0bfba1be02f0dbU,
  0xbb57ac05bd3913b7U, 0x3d9de39abd2b5d53U, 0xbd098efe3d9e39a3U, 0x3d77fa383bce7083U,
  0xbd9f677fbd8e0e05U, 0x3d8fc8e13d5c842dU, 0x3cf5c7e5bcba0a6fU, 0x3d7421043d3ff7f6U,
  0x3dd3be163dee40eeU, 0xbbccbf28be07bfa4U, 0x3c92b9d5bdb71947U, 0x3cb0544a3dc011eaU,
  0x3e0767b83d6d9543U, 0x3db380e93e00b6b6U, 0xbc3d2918bdbe14d5U, 0x3dcb850e3d9c7830U,
  0x3cc29d0a3d5f670bU, 0xbc5f3933bd9c527dU, 0xbc711888bded9ca5U, 0xbd8677083d1e9398U,
  0x3e15dec03daebb97U, 0x3be2d0d13ca1d865U, 0x3d876891bc8c70b8U, 0xbdd9bcabbd9bcbd1U,
  0xbdf0c0cf3d0d55bcU, 0x3d82983ebd589b87U, 0x3caceb9c3bd566b5U, 0xbc659fb7bc5a355aU,
  0x3cca784a3d8c4d26U, 0x3d11f370bdb26c46U, 0xba9f3a01bcd9d9faU, 0x3bd71e8e3dc006a2U,
  0xbd103879bc1d4785U, 0xbde6fe0cbd94bb86U, 0xbd4fa1573c118e68U, 0xbdbba8b1bd7af75dU,
  0x3d813e55bcecac86U, 0xbc88df1d3d3e01faU, 0x3e0354e63e0d124aU, 0xbc18c2233dde6cb4U,
  0x3baacbbdbc7771a4U, 0xbd4e46693cbbe088U, 0xbceadd1abd48d2deU, 0x3d5669eb3d7029baU,
  0xbd6dff34bd97f135U, 0x3de7def13e00278eU, 0xbde7aa753d7adda6U, 0xbc9c10d3bc6314d9U,
  0xbda450763deb3877U, 0xbcb17c8ebe02d9d5U, 0xbdc245e2bc1944a7U, 0x3c771dcbbda94e27U,
  0x3cad5b513d3f66f1U, 0x3d2d467d3e02fe0eU, 0x3ab856e7bc0eaf88U, 0x3bfc12ddbd5e0149U,
  0xbaef5906bdcedbceU, 0xbd877bc6bcb63bbdU, 0x3defd95e3d1f3555U, 0x3d48cc11bd649ea4U,
  0x3be3c597bd97f04cU, 0x3dcb2bc93a57efecU, 0x3d7e0afcbd0fefe7U, 0x3c6c96313d3ae423U,
  0x3ce8539bbd15e6e2U, 0x3c0670c33cd79a72U, 0x3dbf8143bc262a48U, 0xbcf3a4763d7b02ccU,
  0xbcbe9668bcd6adbdU, 0x3b97f786bd2b17f4U, 0x3dd4a8723daf91f7U, 0xbd9fc3033d5a9186U,
  0xbde105733d7e0383U, 0x3d142542bdd272adU, 0x3d246a783d0f6c6cU, 0xbd515e02bc426ceeU,
  0x3cd587aa3dd38e53U, 0x3db130ccbc9d0524U, 0xbd6f48cebd02ef89U, 0xbd3c42fdbc231d01U,
  0x3d5d13c03cd07ed3U, 0x3cb13707bccec875U, 0xbc8795dabc8e20d2U, 0x3d18fcd7bd8ea8deU,
  0xbd0fb827bdbe06f7U, 0xbd88bed23c9ae789U, 0x3cd4d664bdd6f0d5U, 0x3b8eba5abd1cceabU,
  0xbcc155f53d3b78c4U, 0xbd7acd643d9f126bU, 0x3dadd4de3d133f4fU, 0x3da0f2393d025971U,
  0x3dae0f083d9dc95fU, 0x3d17d90b3c27c793U, 0xbd20a01c3d919af1U, 0x3dcf6efe3cefc082U,
  0x3db0bb063db6738fU, 0xbd8b04593d4cfd9bU, 0xbb61169dbd8efdacU, 0x3d71385dbca970e3U,
  0xbcbe7c24bb1b6755U, 0x3d3082d13c1333f7U, 0x3d2f45dcbd6777a2U, 0xbdb9d5193d4f9253U,
  0x3d7502c9bd9448efU, 0x3dd439ee3e01325eU, 0x3d85a6433dc1a00cU, 0xbd97c24ebd2ced9aU,
  0x3cf449ca3d8b7b06U, 0xbd769d383d2b28eeU, 0xbdad90413d9e429bU, 0x3d71a6083cbf821dU,
  0xbcca511e3d179983U, 0x3db908833a64303eU, 0xbd11fad33d9ce2e8U, 0xbda3d7153d9ddd5dU,
  0x3da834d7bd761b38U, 0x3d85ba603cd2d928U, 0x3d89492c3d84fe37U, 0xbd8829c0bd966020U,
  0x3d933e0d3ddb30d6U, 0x3d1f26313de27181U, 0xbdb869d0bd8f6ed1U, 0xbc655eb03d198cb4U,
  0xbdd9aa36bd87fec1U, 0x3dd57fdfbcb95fc7U, 0x3c45aedd3da31fdfU, 0x3d444d423da2d4cdU,
  0x3da016e53d09ca2cU, 0xbd8a3565bce75d54U, 0x3d2868f83c206ceaU, 0x3d3630fbbcd81279U,
  0x3d9eb54b3b002021U, 0x3d5358fd3c814e61U, 0x3b93c509bd8c4627U, 0x3d86782cbd54b810U,
  0x3b663788bd70898bU, 0xbd7906123c1ef573U, 0x3d985ae4bdbbbe0fU, 0x3d92b0b73c271317U,
  0x3cee6cbebcfb87d9U, 0x3be10875bcf6ba9eU, 0xbc8146b63d10687eU, 0xbd03496a3c93237fU,
  0x3cfab0dcbc7f1a6cU, 0xbd478635bcdc99c6U, 0xbc0314debd01aa65U, 0x3ca7cd2fbd48f596U,
  0xbd66334f3dbf1e8eU, 0xbcb9a53bbd231679U, 0x3c9b7568bd95e804U, 0x3b59e207bda3066aU,
  0xbd343051bcb3106aU, 0x3df045ba3df07c08U, 0xbcaebf48bd6b1dd7U, 0x3df06e433bc32beaU,
  0xbd263ad13e26a8fbU, 0xbd969cd6bd166806U, 0xbdb0e011bd9d7b57U, 0x3bff6253bdd4f874U,
  0x3d86a5f03c1d31eeU, 0xbc5e13953df951bcU, 0xbda8041d3d1b1998U, 0x3d10f1ffbcde2b77U,
  0x3d906f1bbd2fec77U, 0x3d81539b3b6e402dU, 0xbd63b65dbd5ae3e9U, 0x3d4cdee6bdcedbffU,
  0x3d6cd820bd91c4ceU, 0x3c42df40bda1b21aU, 0x3cafac993c02597eU, 0xbcd01fc73e0e9c78U,
  0xbd3a35553c6602d2U, 0xbda635623d8a8520U, 0xbcf69e49bd1a9909U, 0xbca66382bd45c2e6U,
  0xbcd9ad433d7034abU, 0xbc142ddc3db92f63U, 0xbc277f9ebd3d7d51U, 0x3d510dd1bca47858U,
  0xbd0089403d970613U, 0xbd678d5a3da9eec6U, 0x3cba61b2bd1b2c36U, 0xbd8db9bb3d232c5eU,
  0x3d2271fabce6e1abU, 0x3d1016aa3d3ff0ccU, 0xbd90d984bcb75a52U, 0xbacccc423d237033U,
  0xbd4d90d9bd8fa1acU, 0x3cbe42a63b468899U, 0xbc9805253d62934aU, 0xbd9252ff3d5d38acU,
  0xbd47581cbd2e7e0aU, 0xbbe214ac3b8e80cbU, 0x3dd4b7263d01ffbbU, 0x3a7ab811bc818254U,
  0x3da0cb26bc5b3ffaU, 0xbd9261afba85eadaU, 0xbd7a466cbd6fbe04U, 0x3c188bb9bdc73df4U,
  0x3d5ee53f3dae70dfU, 0x3db4d1fc3cffb97cU, 0x3d3777293da4754dU, 0xbd16bf633dd80d5dU,
  0xbb604f9f3d37d996U, 0x3d40bb9bbdcf1dc9U, 0x3ca129cdbdbd3400U, 0x3cfa67003ce6f5dbU,
  0x3d63d599bcb9958dU, 0x3dab7be4bd4257f3U, 0xbddb774abcdb420aU, 0xbbfa5c75b9aec84aU,
  0xbd654d293c2e3260U, 0x3d745b503c849edaU, 0x3dc575d53cae83b2U, 0x3d6b04993cbc40eaU,
  0xbc99c5633d9784c2U, 0xbc89bbe5b9bc378bU, 0x3da8d3abbd285cbeU, 0xbcc3937c3d5863deU,
  0x3cbb57263deb1e74U, 0x3d701401bcc69035U, 0xbd9340cbbd31e84dU, 0x3d8c99313dbab1c1U,
  0x3d46fb833c45a527U, 0x3daa3d003df3ab07U, 0xbd8c94a93d9050a4U, 0x3d2a3c503c9b949bU,
  0xbc614887bb9ecdf3U, 0x3c9fbbcd3c96b724U, 0xbcccc551bdbe88b3U, 0xbd4956aabdcffaf9U,
  0xbcbe9441bddaceb0U, 0xbd4651e3bdc7f45cU, 0xbdc8f1383cebc426U, 0x3d281b7cbc031829U,
  0x3c61206f3cce1a27U, 0xbd969e803d686f39U, 0x3d807d8a3e033efcU, 0x3d19a51bbd9b925eU,
  0xbcd649d3bd71505dU, 0x3d9149fcbc241622U, 0xbc8cb88a3d48ee10U, 0xbd7a7be0bd5d31d1U,
  0x3d8581febb29b354U, 0xbda77b85bd3d6d0aU, 0xbd183a3cbdad7f5eU, 0x3d4cba11bda4d23eU,
  0x3bbc5a15bd3d8fd5U, 0x3cf98cac3bc94b42U, 0xbd0fc0843ce404c8U, 0x3d480298bc3e69bbU,
  0xbc9955bf3da744fbU, 0xbd60b8a3bc900119U, 0x3d480642bd1feaafU, 0x3d2873213c24a040U,
  0x3cc522de3c4fca7fU, 0xba0bf4b73b8e09f9U, 0xbd1c8d013d849483U, 0xbdc050e5b9de5c20U,
  0x3d3aadba3daec799U, 0xbd5b6ded3c799ab9U, 0xbc840347bcb9bfb9U, 0xbda44b01bd00c802U,
  0x3d0334413ca79495U, 0x3c980afa3d431329U, 0xbcd7ad1f3cf1ab70U, 0xbc8ffb20bca9e06eU,
  0xbcadf526ba9a5196U, 0xbce8fb3d3cbf01f3U, 0x3d83b0433ca178d4U, 0xbc2f115bbde40b5bU,
  0xbc27f2ebbd011ad8U, 0x3c12d2b53c2e094dU, 0x3db34fa33d19d5a1U, 0xbd8a6804bd9b4977U,
  0x3d7ea18abd1274a8U, 0x3cf19567bd68a50fU, 0xbcedfca23d887e89U, 0x3cf35988bd9a4bbdU,
  0x3d8d6e5d3c927acaU, 0x3d1a9db73ddc96e7U, 0x3d4f7f98bcf89e81U, 0x3cfe37d5bcfc5d0aU,
  0xbc92358bbdebd162U, 0x3d90812bbd8dd415U, 0x3ca10045ba77dedaU, 0xbd3897013b5543eeU,
  0x3ccce2d4bd76bc35U, 0x3ca3692b3c328b06U, 0xbcb6cd8fbb3a7821U, 0x3dc80e953cd0bfb8U,
  0x3bde487b3db2710aU, 0xbdd45e0cbdbd5dfdU, 0xbd8644363cf67e4bU, 0xbd877886bd4d1116U,
  0xbda71904bdc2024eU, 0x3da9e7dfbd5e7e77U, 0xbd02d9103d9899e9U, 0xbe136530be159d3eU,
  0x3da1bb693dac056bU, 0x3d5d54223df5361bU, 0x3d4f2c2b3ce70126U, 0x3d0d58953df54dddU,
  0xbd98231f3d27fabeU, 0x3d2cc43e3d59c7a8U, 0x3cd233393db3f5e5U, 0xbd2f3ecfbc751ceaU,
  0x3dc9356b3e009762U, 0xbdb469a8bd0947a2U, 0x3d7fba9b3d92086bU, 0xbd2b46493c5cab91U,
  0xbc895327bd8863c9U, 0x3df1b5a9bd3006d2U, 0x3d1780353dbc83faU, 0x3b009f37bd3c2851U,
  0xb839aa533d409e1eU, 0xbd9336a13c9db1b8U, 0x3da9a0733d249aa6U, 0xbda48005bba6c89aU,
  0x3c8d7c203d9cfcddU, 0x3d55e8183d7d8973U, 0xbb3fe437bd803122U, 0xbd114a553bc6dabfU,
  0xbd3773d4bd4833bbU, 0x3e08abf33df965b4U, 0x3d8386743dacb8e0U, 0x3d1c3c973ce88c25U,
  0x3d3f0d4abc6aa77fU, 0x3d85e8753da30e08U, 0xbdcc69c1bdc3e0fdU, 0x3c0d6d47bdcdc920U,
  0x3d1fd645bda3cb28U, 0x3bae50193d8c67abU, 0x3d87c66ebd3a57d4U, 0x3de9b559bc98502fU,
  0xbc3d7f7ebcba07dfU, 0x3ccc91cc3c9846eaU, 0xbd3142dc3b2f8252U, 0x3cc607b8bdabd2bbU,
  0x3e0e838e3d8da223U, 0xbd88acd03cf1e524U, 0xbbba64483cc396c3U, 0xbcd957ad3d370973U,
  0x3d5e4b56bdaeb871U, 0xbd8098e83cf9d9cbU, 0x3c930648bd36c4bcU, 0x3cbf85c53d8166e9U,
  0x3d4b283fbd835e46U, 0x3ce4cb303cb31a8bU, 0xbdcdaeb23dd11886U, 0xbbde7982bc59828cU,
  0x3d433f60be0b34a1U, 0x3d3af9473d0701a1U, 0x3d0e56293cc51f95U, 0x3d67e1723daa7b25U,
  0xbd30c8ee3d86c930U, 0xbce366473d5678e7U, 0xbbeb6228bcb47183U, 0x3c6e6c56bd36c25aU,
  0xbe064017bdc3e9fcU, 0x3dd8a37abd6b35e8U, 0x3d173bd83ca85548U, 0x3cd76a62bdae53aeU,
  0x3dc1e2ee3d89db29U, 0x3d4a3ab4bd5843ffU, 0x3ab21903bd809cd0U, 0xbd655926bd98ce94U,
  0x3ddb3f2c3da123dbU, 0x3c5b16e43d90a0e7U, 0x3dab48ae3dbafd89U, 0x3d8b1f003cb4f4fcU,
  0xbd34d09d3d4a1969U, 0x3d5ad42f3d615b75U, 0xbdd63a793d649481U, 0x3dc4d4b3bd9e1f88U,
  0xbd1245903cd55df1U, 0xbd3deb65bd2e1dffU, 0x3de979e53d4b1d97U, 0x3cc28920bcc81330U,
  0xbddf1ca7bdd73da1U, 0x3d73e72cbd75820bU, 0x3d20546b3c9383e1U, 0xbd86eb1e3d986b24U,
  0xbdc91511bda3dd6cU, 0xbdc6e1bdbd6712daU, 0xbcd201753c247235U, 0xbd2d3b91bdb56892U,
  0xbcdf46033dc079c9U, 0xbd30f4ebbdf4c460U, 0xbd070a93bca260a0U, 0x3d0bc49ebc0c70beU,
  0xbc83fce1bdd1813bU, 0xbdb32b7dbd170a09U, 0x3cd0ba36bd218c56U, 0xbd7875453d31214aU,
  0xbd2635313d620838U, 0xbd28054dbe0fa053U, 0x3d869d38bd1e85a1U, 0x3de6d6283c62e881U,
  0xbd9deb0abc99633bU, 0xbdaaa4d23c9c7a0cU, 0x3d524949bd5a6f5eU, 0x3b6b277b3c098009U,
  0x3dd051163d9b5617U, 0x3d97040f3d531146U, 0xbcb06496bcb34474U, 0xbd7222f63d9bac48U,
  0xbd0016673d4d6eedU, 0xbce94431bcff86abU, 0x3c96b6d23da586f3U, 0x3d9868203e017e25U,
  0x3d113d15bcf5459eU, 0xbd709d7bbcc734d0U, 0xbb4de7caba15c2e9U, 0xbc9ff038bdd07928U,
  0xbb734d553d947d51U, 0x3d8c89713c4ec7d8U, 0xbd9d2e00bd9228e2U, 0x3d0db2b7be11f116U,
  0x3d739725bd2a50b6U, 0x3d8509a53c1eba32U, 0xbe0158d63db0297bU, 0xbcb5cec33d981fcaU,
  0xbda6e51e3dcf327fU, 0x3db0bc85bdbe4b4eU, 0xbd6fb961bd8ac7e9U, 0xbcdde9253dac4458U,
  0x3db02cd6bce60612U, 0x3da7c566bc8cc5dcU, 0x3d06e6ea3dc4bfb9U, 0x3d5f756a3cf471f0U,
  0x3b0cf4b93bb51204U, 0x3d2ded00bc74911aU, 0x3d49ef9fbd9c8c40U, 0x3c89862ebdb73a38U,
  0x3c98c2db3d200765U, 0xbdccfeab3cea6fdeU, 0xbce3e2f63da2c1f0U, 0x3bab6fd43d8ad0fcU,
  0x3b8a48903da7655eU, 0xbdd77ec4bdb8e2b3U, 0xbcc21e74bd38e488U, 0x3d8a0c253d13cd9aU,
  0x3d3bcbc2bcd1a162U, 0x3dea697b3c8a566aU, 0xbdb2b0243d66947eU, 0x3d62a8e6bdaf0d4aU,
  0xbde7d4863d205448U, 0xbd38abbbbd8a7e56U, 0x3d83115a3d925f4fU, 0x3d9118a73dc44fd9U,
  0xbd2c0a78bda9059eU, 0xbdd2a289bddc0ccaU, 0x3d8eb44e3cbbf827U, 0x3cc2db2d3dadad05U,
  0xbd7508f23d8379b8U, 0x3d6c2820bde4e06aU, 0x3d9e257e3c8e6500U, 0x3ce9634abcc7f27fU,
  0xbca966993da902d5U, 0x3cd4d0ba3d996c09U, 0xbd9b5774bc6a28e7U, 0x3d44b76b3d93b239U,
  0x3c3098da3d307c5cU, 0x3d48ce0cbda547aaU, 0xbdbd17f83d4dcaf6U, 0xbc3faa56bdf48bb3U,
  0x3cad3db93daeb142U, 0x3cc79e993d19bcabU, 0x3d9ffbd2babcac6eU, 0x3d4541513d501055U,
  0x3bc6e8733d67ee62U, 0xbd5f5e0fbc9f73efU, 0xbde1ad673d575dffU, 0x3d5e13fabcd2e8faU,
  0xbdf2ec513cbe8713U, 0xbb1d214c3d79544aU, 0xbd76498d3b0fff94U, 0xbd55f308be139fc2U,
  0x3d3438fd3d153a6eU, 0xbda501403c4327b3U, 0xbb2c160c3d9b9821U, 0x3d080b60bd9885f8U,
  0xbd2833763c937f23U, 0xbdc86498bd9bd148U, 0x3da105fdbd631af9U, 0xbd7c83a83cd657c4U,
  0xbd8c9d2bbd96ed8eU, 0xbd36a7ab3d4a8277U, 0x3da46ef83cbf3beeU, 0x3c344e2e3c8e9893U,
  0xbc86d7173c4c9106U, 0xbb53b4ac3d314761U, 0x3da4748e3d0924d6U, 0xbd4ae9f93ce7a383U,
  0x3d4ef8943da04551U, 0x3d770b0fbd2676ceU, 0x3da958eabd6915e1U, 0x3ce56336be0ec6e3U,
  0x3db89c783dd0e7afU, 0xbd88406b3d0d9391U, 0x3d7ccb2bbd332c30U, 0x3dc0d2c9bd125178U,
  0x3c3d62c9bd9261a7U, 0x3d80f2e53da50099U, 0xbd5e3947bd10affaU, 0x3cd1ccffbdc9deddU,
  0xbd9244823d25542bU, 0x3c75e0bcbe01525cU, 0xbc0a078e3df306aaU, 0xbcba1e163db91470U,
  0x3d06d26d3d9143f4U, 0x3d3275ab3dc43a9eU, 0x3dc05877bd7830d7U, 0xbb506f7cbd7cec67U,
  0xbd4d77363da4b262U, 0x3d6b34ae3c8ce0eeU, 0x3c725a6ebd55150fU, 0x3d9ef8c33db18f89U,
  0x3d8fea9c3dbe454bU, 0xbd110a6dbd6fb81fU, 0x3d6e06d73dc50d93U, 0x3cbb4adabdcecc0cU,
  0x3cc8ade43cc252faU, 0x3d2d7efe3d7b1507U, 0x3d8de3b3bc685f76U, 0xbd8e5429bd987f43U,
  0x3d0e9471bd37d974U, 0x3d6d4184bdc9c1c1U, 0x3dd6a47dbd10d64cU, 0x3d1107183d7b14c8U,
  0x3d1a79df3d65a3eaU, 0xbd1d285d3d189ba5U, 0x3d9d405cbb6c01edU, 0x3cc97b29bc843ca2U,
  0x3db4cee6bc21b368U, 0x3d45d57e3d96808fU, 0x3cb5032a3d16490eU, 0xbda22128bd83aa6bU,
  0x3d94e6393d0c7d07U, 0xbdaeb944be087daeU, 0x3c8609143da2675cU, 0xbe09f9b8bcf7222aU,
  0x3c6ef04fbcd1c2c5U, 0xbd7819b6bde873dfU, 0xbde19c45bd4ccdd6U, 0x3c62dd2e3c98a459U,
  0xbd2f90ffbcd9dc9cU, 0x3db0d400bd87e842U, 0xbdc8a3db3c245c89U, 0xbd8a7cd03dc9f4d1U,
  0x3d7564023cb1c5a4U, 0xbd80a653bd3a66fdU, 0xbd79c7183d419f75U, 0x3c8a1ddfbdc27cd2U,
  0xbc9a996c3ded6714U, 0xbd2b6afd3d72cf20U, 0x3dff90f4bd189850U, 0x3cf28a313d731da3U,
  0x3cc989ddbc115d41U, 0x3d3a39d0bd93dcc0U, 0xbd48dcc5bd2dca0bU, 0xbdbe71c53d4054acU,
  0x3d8f63033b0cc63fU, 0xbd298966bd96cdf5U, 0xbaaedd6abd3bb9adU, 0x3c7d89f53e32e4daU,
  0xbdb63d6cbd8cd9a3U, 0x3d762ae63d92fa7fU, 0x3b960e6abd77b178U, 0x3de7ebe4bcd07eccU,
  0xbd46d47dbd5133f3U, 0xbd595942bc943b09U, 0xbdd44348bce14facU, 0x3ba11bf23dd98cadU,
  0x3cd198ba3dbba83fU, 0x38e7cb85bd7277a7U, 0x3dd9f484bd564e16U, 0xbde6fa9d3dbcb781U,
  0xbd6c16babcfc7e1dU, 0x3dd60aa13d1a041eU, 0x3c84539cbd4be7d1U, 0xbe00e138bb97c175U,
  0xbd5fbcee3c032097U, 0x3dab34a2bcd9b45fU, 0xbd33c4f2bcd77011U, 0x3a98cb083d602db8U,
  0x3c84214bbce784daU, 0x3d2145f4bd777864U, 0x3d725594bdd7f4f6U, 0x3db87cfa3c3070c4U,
  0xbd90245a3ded2b37U, 0xbd2212bcbd3bfc88U, 0x3dd996d73dc57436U, 0xbcca7cec3d5c2889U,
  0x3cff81c8bcb03cd5U, 0xbdd99e763c858fe8U, 0xb9a30da53d8dc357U, 0xbce97c6fbde6642cU,
  0x3d59bc4c3dc4aafaU, 0x3d8ec02abccb7d8cU, 0xbd27c2593dcb4b0fU, 0xbd982ea3bc9fd86bU,
  0xbd45bfa9be11385eU, 0x3d0cb7e13d5f6af4U, 0xbdf634dfbdb58d6fU, 0xbc8383033d3c64c8U,
  0xbdcbb98c3cbf2eb7U, 0x3c282e783d0a493aU, 0xbde6aaf93d9a3451U, 0x3dbf84673da75617U,
  0xbdcb7451bd58a229U, 0xbc08c253bda5bd02U, 0x3b5ee6aebdd37dd7U, 0x3d702f0dbda9aebdU,
  0xbdc6759a3de5c057U, 0x3dddeeafbd9f9092U, 0xbd7224febd81dafcU, 0xbd3cc54bbdc07b51U,
  0x3d0e98f23ca062f0U, 0x3c83eef93d9cc5acU, 0xbc2e96e8bdbe4a0aU, 0x3d9dc706bcb476f6U,
  0xbdcc730a3d7b442eU, 0xbce355a6bd850a9cU, 0xbcf331073e0bbe98U, 0xbd931ac4bbd0188bU,
  0xbd8537193d05d88fU, 0x3cd079223d64bd7bU, 0xbd1fb01ebdd5ee7fU, 0xbbbb4d2dbd632461U,
  0xbd8eba9fbcc9da83U, 0x3c48db683d88bf9cU, 0xbd6ed08abda9be94U, 0xbdd9ad9fbd5a4333U,
  0xbc120897bd77b1c1U, 0xbcb4ae333d17994dU, 0xbd616d813c379348U, 0xbdd8ad0cbd982bedU,
  0x3d8cc0493da334bbU, 0x3da7addd3ba05475U, 0xbd2d60753dbe3274U, 0xbcc2fc4abc5e3d0fU,
  0x3dbdb0b53dbb0cf0U, 0x3c402b2f3d85675eU, 0xbd283c043d764663U, 0x3c92d3543ac2af50U,
  0x3a46c5c4bc893b19U, 0xbd8deab2bd3cc376U, 0x3dcf606d3ccc7ed3U, 0x3cbf665abd0f82dfU,
  0x3d3a6ebabd7c98c5U, 0xbd9bc3363d470b63U, 0x3c758c3e3d92b713U, 0xbd9b1cb2bca1b846U,
  0xbda54f873d2a7da2U, 0xbbb3dd023d8ddb77U, 0x3df252e63d85212cU, 0xbd9463cabd84e3fdU,
  0xbda7f4a03d08ef4dU, 0xbe012ca73db06bcdU, 0x3d7832773dbe03ceU, 0xbdc816cbbdf1bc05U,
  0x3d5dab6d3d81c73bU, 0xbdba01b8bd6561adU, 0x3dcb4dc3bd0a0704U, 0xbd0943473d82c577U,
  0xbda376e33c321fa0U, 0xbd9cc9ad3de3bf9fU, 0xbc6ec4723db8b2afU, 0x3cebb44bbd16e23eU,
  0x3d1ce0f03d13586aU, 0xbd77b6cbbd51c2afU, 0xbd8fe28cbdb39309U, 0xbd6fbbb4bd88cf72U,
  0xbbad7f4abb54856cU, 0x3d0dc34c3d3315ffU, 0xbd69e4a83b734369U, 0xbd9ec7ea3dacab57U,
  0x3d3c2744bcdabdedU, 0x3db5703d3cb8cc39U, 0xbdcb86d63ca956c3U, 0x3d80a20f3d8c1507U,
  0xbd3895dd3de945dfU, 0xbdba4122bde50e61U, 0xbdb80adfbd4004c7U, 0xbd810b5bbda5e4efU,
  0x3ba6d889bd81b16fU, 0x3d868c7ebe0493cdU, 0xbc899e123dbc6df6U, 0xbc09b00dbd3f8c24U,
  0x3d1eda57bd48b0d9U, 0x3d8f5713bcd68bbcU, 0xbdd90f863d909e71U, 0x3d335af0bc84386fU,
  0xbc95d85a3d8e9cc3U, 0xbd7f9ed83cc79b80U, 0x3c50f301bdaf41beU, 0xbdad43563d6461b2U,
  0xbcf5e865bd88531eU, 0x3dba80bbbde99ec4U, 0xbd81e3c73c731560U, 0xbdadf412bd99495fU,
  0xbb92464cbddaaddbU, 0x3d88487abcec5dd0U, 0x3d4df9773b48c47fU, 0xbdb24cc13be39ed6U,
  0x3dc9ba0a3d65ca6dU, 0xbdb84fcc3d9cebe2U, 0x3ddcc5bfbd3287aeU, 0xbd19bdc93d1f79c3U,
  0xbd9976453d0323fdU, 0x3cf4e4a23d89e333U, 0x3d1635f33e08e5b9U, 0xbda07b1bbdcc9731U,
  0xbd9b74ddbd4d41cfU, 0x3cc4ff64bd4665bbU, 0xbcdba6523cd77913U, 0xbdfdcd6dbc993d8cU,
  0xbda1d392bd946ff5U, 0x3c415f7d3de811a3U, 0x3d83fd57bdccaf21U, 0x3cc173883da80c81U,
  0x3d991b5e3cd9af83U, 0x3d4112253bddc7aeU, 0x3ddb2b31bd5c7e63U, 0x3d0186183d823813U,
  0xbdb64105bdb21ea0U, 0x3cf23d603d28165dU, 0xbd93b6783d733e25U, 0x3d4bb10b3da1468bU,
  0x3d26c20f3ced7e27U, 0xbda96079bd89d15dU, 0x3d1e04793dbaa8f2U, 0x3d305e3c3dc72598U,
  0x3db4b77e3cd05e66U, 0x3c2305eb3d7136ebU, 0xbcdad02dbd85cec8U, 0xbdedf9c2bd67a71fU,
  0x3dbc318bbd1ddb73U, 0x3dd6cd133d8b0107U, 0xbd55be74bc7f1760U, 0xbcda362dbd04ea8bU,
  0xbd9811a13e057f9dU, 0x3da8afbb3c92021bU, 0xbd469e39bd98479cU, 0xbd3bfdcabddea064U,
  0xbd1fcb763cfe8108U, 0xbdac1af03dcc6175U, 0xbda1d94fbdd1658fU, 0x3d55bfbcbca06774U,
  0xbdedd22b3d85ad7fU, 0x3d862dc93d813433U, 0xbd92e42a3d09e501U, 0x3cb04a60be0a3bffU,
  0xbde0c4763c992bc5U, 0xbdcf8af13d0fd80dU, 0x3dfa46c83d969b38U, 0x3d3b54813daa4f1fU,
  0x3d60b7ecbc9a6e02U, 0x3d6ee8c3bd624b31U, 0xbd4e9ec33e0a8bf2U, 0xbde04c393c41d3fbU,
  0xbb4b6526bdb6adbbU, 0x3cdd61233d6dfd1bU, 0xbda77c18bdfb113fU, 0x3d0ca45e3db499ebU,
  0xbdd7f29bbcd77481U, 0x3d59e73c3daee89cU, 0x3d7b84dabd02a1c7U, 0xbcac782bbce64bd0U,
  0xbcf9a923bdf1bdfdU, 0x3d779c09bbe50a74U, 0xbcecc2f1bd72f2f3U, 0x3cb9aa463d67bcb5U,
  0xbdcb9091bca587f8U, 0x3d1285f5bda5d4afU, 0x3e103cb93a8af921U, 0x3d5f07c2bda8591eU,
  0x3db388913c61af87U, 0xbce879d13d84e851U, 0x3b113445bdceb074U, 0x3e004a41bccc0389U,
  0x3d3ba35b3d83040aU, 0xbd7cc15cbda10274U, 0x3dcdb99a3d7d0414U, 0xbdcf20593d2a0fd9U,
  0xbdc9a54d3d2c4119U, 0x3c844f343d64e724U, 0x3df0bac8bb19fc68U, 0xbcbc3ecd3df859c0U,
  0x3cb587a13cee9416U, 0x3d03c1dcbbba4d6eU, 0x3d6f66cdbdf9de4aU, 0xbbd8185abd64eaebU,
  0x3dbb525cbd972c21U, 0x3d32fdb43dc41603U, 0xbdaca783bda8e241U, 0x3d944a8f3d2fe2bdU,
  0xbda5b5593bf6e942U, 0x3db724d5bd5c422eU, 0x3d13143c3d5e4cd2U, 0xbd9260fdbda95815U,
  0x3d8523fdbd03d5bfU, 0x3d9f3abc3db626b4U, 0x3db4af8c3cbc5feeU, 0xbd33903fbd2cb2dfU,
  0xbcac19a4bd90e77aU, 0xbd100e09bd92adedU, 0x3da87f00bda21a4eU, 0x3d00d97a3d1236b0U,
  0xbbc00545bdcfd0e7U, 0x3da13ae7bd769ea7U, 0x3d595ec5bceac12bU, 0x3dcf873bbd7289beU,
  0xbd16e86d3d80c11aU, 0x3d81460d3d013506U, 0xbda802343d9d5d5aU, 0xbdfd690abd1ddff3U,
  0xbd9d70263dad6c4dU, 0xbcd223fd3da60bdcU, 0x3c68e9203d80922bU, 0x3d51169fbd5211eaU,
  0x3d0b11c2bd314791U, 0x3d903bfdbd96545fU, 0x3d0b8674bd850ae0U, 0xbad86fda3dacac1eU,
  0x3dcc3de3bd59408fU, 0x3d8daa5ebdaf57fdU, 0x3dd6e1fb3deda4b4U, 0xbcf30c7e3db7b046U,
  0x3ccc9cc53da43ebcU, 0x3bcf8fb3bd7765f4U, 0x3d922f02bdba1b2cU, 0xbd37b5a2bdabf1aeU,
  0x3ddc15d43d9c13a7U, 0xbdb721ea3c2f9223U, 0x3d59f1243a330f67U, 0x3d6e8d4abce294beU,
  0x3c4357963d957deaU, 0x3d8903ca3c096cbeU, 0x3d2db39bbbdb498bU, 0xbd277218bded4dc1U,
  0xba91a680be06a55aU, 0x3db6d1a13d995fd6U, 0x3d76599b3d2ff5aaU, 0xbc34d380bd3a09ceU,
  0xbd062ad83d3e541dU, 0x3dce8167bdc8dfaeU, 0x3d8d0cdebc8a6078U, 0x3d23ad693dbf90e0U,
  0x3dbe126dbd778195U, 0xbd9c20f83dbf1acdU, 0x3dc21aad3db1aabaU, 0x3d130b8cbd59358aU,
  0xbd6fa5e13cc50056U, 0x3d92c068bdb691e5U, 0xbcf3145f3cd60f98U, 0xbd88d223bc35bf33U,
  0xbc44a6233dbe6cb1U, 0x3caf1a103d2f27d2U, 0x3d110ee23d8fbd79U, 0x3ccc0bd93d860309U,
  0x3d6bc582bd817d98U, 0x3d75d6703da47616U, 0x3d7e00713de903bdU, 0x3d97be89bcfcb9d0U,
  0xbd10122dbd217d78U, 0xbc9a8df8bd2f2857U, 0x3d4b149e3d5db4a6U, 0x3d8f01743d73e779U,
  0xbd7ff597bd2307a6U, 0x3d8b45593d420289U, 0x3d53e8153d8b0756U, 0xbd4111b23d46fbdfU,
  0x3dbc831e3ddbafbfU, 0x3d1ef5b83db39089U, 0x3da597513b66d277U, 0xbc052e76bd46b07aU,
  0xbe03604e3d30c4f9U, 0xbd6c5558bd8b6308U, 0x3d7feaf83b96c110U, 0xbde89d83bca3b6f0U,
  0x3da70b243dad412fU, 0x3d9c1b553e063b89U, 0x3d82b8213d6d3b8eU, 0xbb61caf43d6c0b37U,
  0xbdfa84d1bc122ce4U, 0x3d3730dcbdaa889eU, 0xbdab0fd93dd537b4U, 0x3c46de8dbd80f97aU,
  0x3d21ea3fbcd1f150U, 0x3d545f4a3d132079U, 0xbdb018dcbdc9a6f0U, 0xbc7bc3663cd25ca5U,
  0x3c6546a93db00fb7U, 0x3c9e91d7bd715aa4U, 0x3ceda10fbaace91eU, 0x3dca126f3d2c18d1U,
  0x3bc0ff7d3dacec67U, 0xbc8d29713d93d991U, 0xbd4f6bd2bdedb7d0U, 0xbba2fdab3c06a479U,
  0xbc50c43d3dc71ed5U, 0xbd4411323df4acf7U, 0xbb2fba01bccac92fU, 0x3da506f4bd18508fU,
  0x3dcc54e9bd9a9fabU, 0xbdb9b87cbd24a1b8U, 0xbca140793dc16dbfU, 0xbdd08a3a3cf09787U,
  0x3cf70f543d0a52f8U, 0xbd24aa39bd889f5fU, 0xbd456f27bab1ffcaU, 0x3de6b902bd4c7e70U,
  0xbd9979c33d8298b4U, 0xbd127eb6bc9ac6b5U, 0x3de4671c3cff9fd0U, 0xbc239e263d4a78e4U,
  0x3dc1506a3dca4c36U, 0x3d8d249d3da2421cU, 0xbbdb046e3d329215U, 0xbd3c01d73d86150aU,
  0x3d75c55bbd428579U, 0x3dbcd563bccef989U, 0xbda7c7c0bd7b9a01U, 0xbddd27b33d96718fU,
  0x3dd8389e3db4120dU, 0xbcc5ed4cbd8aabadU, 0x3de4ab8f3dd27dd8U, 0xbd0d23fa3d3bda6aU,
  0xbcc3a8c83d0c78f5U, 0xbd2776fe3d1b486aU, 0x3da081703ddf6c17U, 0xbdec52a9bc5f2423U,
  0xbda552193d0e4eecU, 0x3dae3df9bdb2426dU, 0xbca8e6c0baec3040U, 0xbd7150f4bdedb5dcU,
  0x3dbbdaff3c4779c8U, 0xbd25308b3d10e954U, 0xbcd5627d3ce3fc4eU, 0x3da6f11f3c058705U,
  0xbdc343f7bce58598U, 0x3d8c7fc0bc90ac61U, 0x3ceeeeb83da42a8eU, 0x3c30e319bcf980a3U,
  0xbc53cd86ba19af58U, 0x3dfb4f683c7a7bd2U, 0xbaae414dbdacc53bU, 0xbd8ce0473dc66ba4U,
  0x3dc7bda13cafbdd3U, 0x3d2b03633cb76dfcU, 0x3de69da7bde10dedU, 0x3d90452d3d2ef90dU,
  0xbddff58e3ddaf79aU, 0x3da5b0a0bdc992dfU, 0x3d1843d4bb23a6cdU, 0xbc983de23d427760U,
  0x3db8a4f0bcbc3d62U, 0xbdd04754bd6f7484U, 0xbd0d7590bd762e94U, 0x3d44e7f63dba4dbeU,
  0xbcc14f60bd8ce78dU, 0x3d4f70eebd6cd568U, 0xbd9bfe75bda29ab3U, 0x3d9d98393dbe5efeU,
  0xbda903fcbdb30b62U, 0xbc81fc5f3da2218fU, 0x3dc9b043bdadd77fU, 0xbe261992bc1240b9U,
  0x3d1ed69c3d423445U, 0x3daaf171bda1d75dU, 0xbce82012bdb4de55U, 0x3d31e82abb8881f6U,
  0xbc5dc616bbbb8a3dU, 0x3d57d721bd72eed5U, 0x3d7364403d15c135U, 0x3d3959533d26a6f9U,
  0x3dcf85043deaab01U, 0xbd43f5863d860adfU, 0x3d82dddbbda4b99dU, 0xbd869b82bdb846cbU,
  0xbc7cc9aabd4a90b1U, 0x3d50ef21bd84328eU, 0xbd1c4bb8bd75affaU, 0xbc56e8373e062186U,
  0x3d853690bd878641U, 0x3caa9842bb5f553eU, 0x3dc0821a3d561036U, 0x3d0903843d0e4acdU,
  0x3d8378c83c89e020U, 0xbdb30307bce7f2b6U, 0xbd8c33e63e015635U, 0xbdc847a0bda178b5U,
  0xbda32e91bdbd97f8U, 0xbd124c91bd14327aU, 0x3ca46c973d8ca42eU, 0x3d267ccfbdba98c0U,
  0x3da4aa11bd32bf77U, 0xbdd497c33db1b229U, 0x3c34c0663bf0b5adU, 0x3d5b2496bce81bb4U,
  0xbd7bd64fbe000ecfU, 0x3d1cfad5bce52701U, 0xbd5cf5ea3af5e48cU, 0x3d4d0fa53dbd6c12U,
  0x3da7fa913d4f0b7fU, 0xbd93b8cd3df3b41cU, 0xbd0c43c5bd8d554dU, 0x3db1c2a3bd522dc8U,
  0xbd0900113d8f5ffcU, 0xbde6f480bd927174U, 0x3d26fd783de95ca6U, 0xbdbc05213d770de0U,
  0x3e06bf92bd61e198U, 0xbd592c5e3cfe897aU, 0xbd8d38babd893dcaU, 0xbd7834ddbd50e1baU,
  0x3d9a54f43d69b45bU, 0xbd21cc84bdd18848U, 0x3da97893bd299483U, 0x3cdb8472bd4ca9e9U,
  0x3d99458dbdf1a73aU, 0x3ce87ea1bd8b9b6cU, 0x3d5420093e05c148U, 0xbc70b473bd25f820U,
  0x3d9bdf663c77aa57U, 0xbad3a1a8be01b705U, 0x3c60ea093d66668cU, 0xbda31bb63e021855U,
  0x3c05c9613d36a502U, 0x3d8841603c022be2U, 0x3d9cfbde3d8ccccbU, 0x3c9d7907bd2edec3U,
  0x397168913e112a45U, 0x3d16e0a3bddc6d33U, 0xbd10211b3d495569U, 0xbd4ea4d5bd9a0c95U,
  0x3da0d012bdd60221U, 0xbd6bfd2d3dcbff49U, 0x3b84747e3dcb19b4U, 0xbd2562b1bce9493cU,
  0xbd70f3e63de3588cU, 0x3bc43b9b3d2fe976U, 0xbda35959bde8b4e4U, 0xbd085ae8bd4df44dU,
  0xbdad13133dd8e646U, 0x3de4416bbe06eb58U, 0x3b62f8be3de08b2aU, 0xbd0797873d2502f7U,
  0xbd7c1634bd14368eU, 0x3dba692b3db1603cU, 0x3d247a18bdbe8396U, 0xbdbf80ddbca9a6acU,
  0x3dcdb0733df2493bU, 0x3c153552bcca703bU, 0x3b4814593d8fcb86U, 0xbd52acb63e09aaf6U,
  0xbd6d866ebcd19138U, 0x3bea0f4c3da19e02U, 0x3d7591b7bd38cdf1U, 0xbdb8d81e3d578810U,
  0x3d745282bd855841U, 0x3dcf0c423d87fb01U, 0xbbac2276bcc26e00U, 0xbd6516c53d916405U,
  0x3dfbd22d3d47b6cfU, 0xbdbf96abbdc65fabU, 0x3bd362263cc5b092U, 0xbda1ac4cbdb26810U,
  0x3d86cfbcbd02d251U, 0x3d615fea3d9c87e8U, 0x3d6f9823bd69d6feU, 0xbc9ce60bbd820d45U,
  0x3d742f443ce6d234U, 0xbd823bd93df27ebcU, 0xbdfba6c1bd523a2cU, 0xbb3d0fb63d1a0346U,
  0x3b5c07d13deff753U, 0xbbde04cd3d45c28aU, 0x3d15978cbde5ee84U, 0xbd0924f73d9bca6cU,
  0xbd2d88573d0a5720U, 0xbe07214cbdeb17ffU, 0x3d7ab5bebdd659bfU, 0x3d425ec73cbc3efdU,
  0x3c6bc5aabdcf3b6cU, 0x3bdc74093d8c75b2U, 0xbcc48a063d5fbe2bU, 0x3c882f4f3da4762dU,
  0xbde0c7c73dabe984U, 0x3dc4318ebd83b93bU, 0x3d2da4213d84b6deU, 0x3d98d04f3d527070U,
  0x3c3c08653d2ba12dU, 0x3d6022adbc055744U, 0xbdfb9a6abcb5bb3eU, 0xbdceee543cc9f06dU,
  0xbda3219dbdbd761bU, 0x3d6c21ee3df1ad64U, 0xbe072a00bc543d74U, 0xbc997aa4bd82ed38U,
  0xbc30ae963de027b9U, 0xbca1e6a23daa1cdeU, 0xbda77cbebddcab0bU, 0xbd7af9c13ccb7b00U,
  0x3d62fbc9bd0e2863U, 0x3d934f56be072c5bU, 0x39ddcbf2bd92bf9cU, 0x3cc32e5cbcf83ac5U,
  0xbda5994d3ce2e98dU, 0xbc3cb6393d37c1d6U, 0x3d8411353d3d53e8U, 0xbdb10fcd3c9b803fU,
  0x3d897961bc59831cU, 0x3d9619663ce3fdd0U, 0xbd89ed673ccfeabcU, 0x3d851407bd7bbb18U,
  0xbcc4b9c8bd4bb0f9U, 0x3c53f6893aa40985U, 0xbd59953e3db8f8b3U, 0x3da0cc813d15fe24U,
  0xbd5570dabd5d254eU, 0x3da90f9e3d880f73U, 0xbdb8a4273c789272U, 0x3d1bff05be163c13U,
  0xbc0110573d964f50U, 0x3dc3fe223d512d1cU, 0xbdc41ea6bdc9db40U, 0x3c99b88f3ba2d7d7U,
  0x3d70d38f3d0724d9U, 0x3d0f0f263d929818U, 0xbc808e4a3d54d459U, 0x3a97e9f33b98f85dU,
  0x3abb68fabdf3b95dU, 0x3d79c8b43dc1ec15U, 0xbddbbe08bda8f26bU, 0xbd7df465bcad70f7U,
  0xbd2e20943de9616cU, 0xbc959ed63d95e60cU, 0x3cd1e5993b58af9fU, 0xbdb5ba16bd2107b0U,
  0x3cdaca8abd94df7bU, 0x3dd7f1933e078ecaU, 0x3d313e7b3dad1cd0U, 0x3cd506f93c61a629U,
  0x3d4e8046bc53e576U, 0xbc37b1b43dab089cU, 0xbce9b49a3d3d8e8fU, 0x3dd0c44ebd22cdb9U,
  0x3c0db5fd3dc66326U, 0xbb2bee813b9653fcU, 0xbdc85905bdd9d64eU, 0x3d2e11afbd90acf8U,
  0xbdb8b4eb3dd84ae7U, 0xbd31ec183d8ab250U, 0xbae6f4103d1be1d3U, 0x3daa5afe3d8db8b4U,
  0xbdda5dc4bd67d31eU, 0xbda608983ce6b3aaU, 0x3dba854fbd69c1ebU, 0x3d9fed45bda8f48eU,
  0xbd309107bd37be44U, 0xbd63aec6bd22652dU, 0x3cddfadb3d0b56c6U, 0xbd9e5195bddb51adU,
  0xbd339c93bd8104edU, 0x3db8f1843ccc6aa0U, 0x3d9df211b9930b61U, 0xbd750a263db05e90U,
  0xbd8b30ed3c5a6bd0U, 0x3de940c5bc231decU, 0x3cec97e0bdd71927U, 0x3d0f68d23d97a2aeU,
  0x3dd3a6b63d8b2670U, 0xbdc92fd23d4d7fb9U, 0x3d4de2afbd810978U, 0x3c109a163e1b52c4U,
  0xbd8514edbd7a78a0U, 0x3d8f90ae3daf9c1aU, 0xbc40c9be3c2d75d1U, 0xbcc5ac673d83d989U,
  0x3d28afe6bddf24bdU, 0xbc86b1413dd23cfcU, 0x3b9b59bc3dc11d08U, 0x3cb8412b3c66cdf2U,
  0x3d59b609bd09160eU, 0x3d7d89263d1a23adU, 0x3dd50e533d72947bU, 0xbc00c02bbcffb6b6U,
  0x3d9e6e433d394fefU, 0x3d762bac3d330cf6U, 0x3a29086abcab8e87U, 0x3cc1b85b3d8f720cU,
  0x3cd98341bcec482dU, 0x3d83556c3dbf8577U, 0xbd4d06e7bd87db7cU, 0xbda96403bdc542b3U,
  0xbd6378753ddb7f12U, 0xbd9bcababcf4f8e7U, 0x3d66ecc2bda204abU, 0x3dc01d5f3d83bc6fU,
  0xbdf4b392bd51376cU, 0x3d1093d03cae962bU, 0x3cc83cb53dbb4a05U, 0xbe0464d1bdc7f7d4U,
  0xbde18429bdc355dbU, 0xbd89fce23da1e0b5U, 0x3ddac4103deeb4c5U, 0xbd80d73f3da08cb0U,
  0x3db8d090bdb226cfU, 0xbcbea640bd6fcdb6U, 0x3cd3d6163dea71c0U, 0x3d1957103cd669eeU,
  0x3ceb77a9bd82a70bU, 0x3d90e3fcbc5f600dU, 0xbd42f7f2bd775471U, 0x3d410c6cbd1e8ed9U,
  0x3d26666cbd8734bdU, 0xbdf2ee8f3d339364U, 0x3c1d9bf63c872422U, 0x3a9c320d3d952facU,
  0xbd46b165bcced22fU, 0x3dbf3d2e3e077ccaU, 0xbd8bcc34bd87bb97U, 0x3d62d1fdbd200755U,
  0xbd86ce5a3ca60607U, 0xbccb4e2a3c473bcbU, 0x3ca730dcbc99a582U, 0x3d8376eebd37efefU,
  0x3d95f28e3d13bd3cU, 0x3cc6c930bcb33a2dU, 0xbd7c868dbde87253U, 0x3d5f26103d6907c2U,
  0xbd97f56e3d6d94e9U, 0xbd7c3a95bda92d99U, 0x3d7049f6bc44af36U, 0xbd8e1238bc5e7e54U,
  0x3d9334efbdbf97f8U, 0xbd70aa363c20032aU, 0x3d40fb6cbd12b1feU, 0x3d12e7953d28ca9aU,
  0xbc5693ecbc0cb5d8U, 0xbdf8600bbb4ef58fU, 0x3d5b896bbc6721d9U, 0xbd0c79fcbd2939b7U,
  0x3d9a386e3da5b683U, 0x3d3fa1b83dcc961aU, 0xbd1b385c3ce82ceeU, 0xbd3722c93cc2e724U,
  0xbd07e68d3d1890aeU, 0x3c826dc4bd7cd5a2U, 0xbd890ae33ca87e25U, 0xbdcce768be00d4d1U,
  0xbd5098d13cd45c55U, 0xbd2ee838bd89d6a4U, 0x3d355bcf3d70b16bU, 0x3da92a63bd5abb07U,
  0xbd86a01dbdad6bbaU, 0xbcd109debcb55fe6U, 0x3ceef0803bac7362U, 0x3da6ce183d9586f1U,
  0x3d9c8223bde9ddf1U, 0xbdb8d1163dacade4U, 0xbd3cd5d03cf85c87U, 0xbd772dff3c0b0071U,
  0x3de4a2533d8dadfcU, 0xbdbcd3453c51047dU, 0x3d6443943d9a20e9U, 0xbdb30e89bd1c7c47U,
  0xbcf0b26e3d56ad1bU, 0x3e05fd5abc975cddU, 0xbe09ec34bdaba7ffU, 0x3d0d3aa6bc80018bU,
  0x3db11e1a3ce9077aU, 0xbce71a3cbd8db765U, 0x3d4fc2a73d18c0b6U, 0xbd927edbbd86d122U,
  0x3becb5f1bc5a6a14U, 0x3c9efe42bd2f1ff9U, 0x3c26621b3c86ce4dU, 0xbdd2be2a3d7dadcaU,
  0x3d9bcc3f3c5aaea4U, 0x3daf7dabbd4b28f1U, 0xbd77676dbca1a3e0U, 0x3ca1efd13d79385cU,
  0x3d0ae24abc23c3a2U, 0xbd67f2523cb82de2U, 0x3dbab29d3d3ca5d0U, 0x3da6a133bd66b954U,
  0xbe12d339bd3078a7U, 0xbc42b933bc2b890cU, 0xbd9bf2aebc396064U, 0x3dd0f7823db85d4bU,
  0x3da11fb83d0568fcU, 0x3d2ce6cf3dc4728aU, 0xbe11a562bd07c021U, 0xbdaee5a23ce91178U,
  0x3d800d8e3d2849afU, 0xbdf20f60bd9a38caU, 0x3d8788ed3da203b4U, 0x3d3bb4163c9f6450U,
  0x3d8fea453c88c294U, 0xbcd793103d0345c0U, 0xbd5b13f8bd6cc25bU, 0x3dabfafd3c997aa2U,
  0xbd11416cbd83ee3bU, 0x3d434bf0bdb32ea1U, 0xbd7535c83db5a868U, 0x3cd17fb43db2e0faU,
  0xbda88a87be01c860U, 0x3d4b3c4a3daf1b60U, 0xbcbee76abd28faafU, 0xbd8c717cbd4dfb06U,
  0x3d038c75bd7e40beU, 0xbda4554d3c91b19cU, 0xbd415755bd11737dU, 0xbcae22fcbcf646a4U,
  0x3c500535bd145d26U, 0xbbfbc815bd4cd3e8U, 0x3b79d7bf3da54c97U, 0x3d045133bdbc1f4fU,
  0x3d18ce673da54616U, 0x3da1112e3dcbcf4fU, 0xbd9e9d78bd9255d1U, 0xbba6aeee3c1282f4U,
  0x3ddc496c3cc2c0adU, 0xbda35bd9bd8de5ddU, 0xbaa86a4d3d82135bU, 0x3d86e9a7bc9ed89dU,
  0x3da2ae12bd69b16fU, 0x3d27f6fabc913fb9U, 0xbd2f966a3d23e4c4U, 0xbd4d50babd9aba1dU,
  0x3d8702073dc4e412U, 0x3cdfc9963d8b5c13U, 0x3e2066cd3debcea2U, 0x3b98d5fa3af50ad7U,
  0x3d71d4063c56e89cU, 0xbd7de5c63bbbd6e2U, 0xbaedeb3abd7799f7U, 0xbcc786da3cabadb8U,
  0x3ccbd650bd58024cU, 0xbbb3a2cbbd83ebbfU, 0x3cf164353cb7cdcaU, 0xbd814e20bd327d73U,
  0xbbeada07bc8bfd40U, 0xbdaa2d9cbd4a2674U, 0xbd0b4f603d515b1eU, 0x3dba3ead3cd5053cU,
  0x3d080fa93d647db8U, 0x3d196e9ebcbfbd0eU, 0x3d5b7bc2bad748e9U, 0xbd3da88f3d596de1U,
  0x3daf8ca2bbc812edU, 0x3d4ac739bdbece36U, 0x3db9145c3c81b5c5U, 0x3dd40f24bc12169dU,
  0xbda9f479bd3fe236U, 0x3d77528e3cbb498cU, 0x3bd576afbdb47a89U, 0xbccf9d423d9ad093U,
  0x3d56e8f43daa590aU, 0x3d3a4a913d1cf2e9U, 0x3dc549cf3b592b15U, 0xbdca29d33db1c9abU,
  0x3ab2e682bc027739U, 0xbc17f1ce3d6c3707U, 0x3aa45d69bc8b35b9U, 0x3cf0e179399a5613U,
  0xbcbbc7453cd5425bU, 0x3c680a4e3d1a517fU, 0x3d1ebf153dd49435U, 0xbcb7a1ebbe088e8eU,
  0xbc4022033d2cb4f2U, 0xbd2d31d43d2d4b6cU, 0xbdb6a3fc3d8cba94U, 0x3d805ee1bdf1968bU,
  0x3d2fd1a0bd84a256U, 0x3d6c163a3d5d6aa2U, 0xbdc7f9ac3da91b16U, 0x3c8b4d08bcfecb69U,
  0xbdfd65cebdcbf88dU, 0xbc91318fbda0e414U, 0xbd3c778d3d20899dU, 0x3d11833b3d58be30U,
  0xbc8d795e3d6ad7eaU, 0x3cc02f9ebd821604U, 0x3cd4a0f1bd02f682U, 0xbd95ddc7bd6b6a4aU,
  0xbd87d73cbc125144U, 0x3d1fb07e3c034027U, 0x3daa09b1bdbfffd8U, 0x3cb91870bd58e534U,
  0x3cce55523dd9f4a9U, 0x3baabdc53d45829bU, 0x3d73f2b53de711daU, 0xbd9756d8bc9d423fU,
  0xbd2dd3603e0493c6U, 0xbda1dd98bcd1b9c1U, 0xbb83e8473d02dea0U, 0x3d1cce3bbba3e568U,
  0xbd0dcd2b3dd34125U, 0xbcdfac343dd62111U, 0xbdfb8b073da5d6f7U, 0xbd7ad15ebd3e10b6U,
  0xbd7ef05fbdad3921U, 0xbda20ababd4a7956U, 0x3d57c40b3d98b084U, 0xbd04f319bc4b7846U,
  0x3cf3d99e3d4e9309U, 0xbd3dff8ebde62c86U, 0x3d116d8cbb774c6dU, 0xbd454f863df5df31U,
  0xbd06423d3bd865e5U, 0x3d664353bb37324cU, 0x3d2764e9bd5ff180U, 0xbcc3c775bd91b4adU,
  0x3d52d1463d87b59bU, 0x3d15d9a73daacd99U, 0x3d866ddbbd272f1cU, 0x3bfecd393d514430U,
  0xbd83940b3c907aaaU, 0x3b802907bdc82cb6U, 0xbcfe667abb0b2a9cU, 0xbdc45d30bce9eaadU,
  0x3d697b7c3d4aa1c1U, 0xbca0b711bdc991bfU, 0xbd9fc8643cf45818U, 0x3b1bf4ab3d05f46fU,
  0xbd2a5a2c3d3b1a2cU, 0xbda16b1bbc545e28U, 0xbd3ec99f3dd0f964U, 0xbc9015363d263036U,
  0xbba21a8b3c427e9dU, 0xbd26b6e8bcae5acfU, 0xbd5abf81bd5224efU, 0xbd7c8e41be327188U,
  0xbd4f8da9bc89c8dcU, 0xbdfd30173d712c7fU, 0x3d8a913ebd19a0a2U, 0x3d73cf75bde124f6U,
  0xbddcfc7abd79a4d7U, 0xbdb4dbc4bd35666fU, 0x3e08a71abd6629d9U, 0x3d73443e3d695796U,
  0xbd1d8973bc60dc8dU, 0xbc70ab92bd51b738U, 0x3d0516513d84680dU, 0x3cde856b3d649ab1U,
  0xbdba2d9b3d8cd02dU, 0xbde1a906bcab7e44U, 0x3db12b98bd4be993U, 0x3d97a3403ddb99b8U,
  0x3d6f4a4f3d804f0eU, 0x3cba5fe73d0c0af4U, 0xbd699b07bd10beecU, 0xbd305649be1db29fU,
  0xbd01f3ab3d8ff88aU, 0xbc7c95433d9a03edU, 0x3e1491e53d06246dU, 0x3d166c063dd19f43U,
  0xbc338f90bbf7e67cU, 0xbd08666bbcaa914aU, 0x3c9a44f7bd4f3300U, 0xbd4b4070be10606dU,
  0xbcddcd013db3b4ebU, 0xbdc00980bdff1e8eU, 0x3d5b5ebd3dbc9523U, 0xbd6f4006bc3f4df4U,
  0x3dad3762bd574627U, 0x3dbd4e843d7996d9U, 0x3d80dcc5bdc6e5a8U, 0x3de3da003d566250U,
  0x3c8fae4f3e0d85d8U, 0x3d0e36503dca4f9eU, 0xbbd9103abc0f85a2U, 0x3d814fae3e0d2d8cU,
  0x3d7db2313d993b94U, 0xbb63c29c3d6dc12cU, 0x3db846cd3c57c325U, 0xbd8edd523d0385ccU,
  0xbd96ed8f3dac8397U, 0x3da33d84bcc026c9U, 0xbd33e62d3d6a76abU, 0xbcc8f96e3d9342e5U,
  0x3cd743f9bd03d573U, 0xbd271305bd4279aaU, 0x3d376219bd0e6e54U, 0xbcdd01673c9060b2U,
  0xbd5d03923cf739bbU, 0x3c934716bb1717efU, 0x3daf78bb3a0e5003U, 0x3d6d5f1ebd2ec06aU,
  0x3d885e7b3dd32b2eU, 0xbdc60f473d86b6c6U, 0xbcf63611bd79a61bU, 0xbe04f4f0bdf60b1aU,
  0xbcb9b1093c83c304U, 0xbd96e237be0e2e92U, 0x3df4a79f3e0437f0U, 0xbce05ef13d0d8b98U,
  0xbdaf64e4bd13326dU, 0xbc00404cbdd1edccU, 0xbe0536edbdf27c00U, 0x3d7119bdbd7037cbU,
  0x3d0d85c0bda39da6U, 0x3d8979b2bd252bc1U, 0xbd00a89c3dd53d20U, 0x3cdd6d4e3dea15a6U,
  0x3d9fb87abd61a881U, 0xbd74f9b93d19c094U, 0xbddf8fd33daae98eU, 0xbc9250c7bd122ba2U,
  0x3d6d717c3e14dfceU, 0x3d2ce4303d8d6d7aU, 0x3b691ad13d11714fU, 0x3d5bdaa53da44fedU,
  0xbd882f5f3d816c38U, 0xbd0e83e7bc91994aU, 0xbdb8c41dbbeec552U, 0x3cb57cfb3dbbf413U,
  0x3d85f02cbc854d5fU, 0xbde8ccd7bdae3552U, 0xbd3648d8bd7cd51aU, 0x3ba2aa433d9499ffU,
  0xbd505123bc47bbbcU, 0x3c0d876f3d4688b9U, 0xbc42a7a13d0e3687U, 0xbd3804273d7df065U,
  0xbe1bc84a3d0de70dU, 0xbdcc043fbd824693U, 0xbdeadc47bceffe2eU, 0xba4cb5f53dfa60b5U,
  0x3b93c27b3d409babU, 0x3d1be1fbbd84cbd0U, 0x3da0f6bb3d5ac606U, 0xbdda94af3d2f52caU,
  0xbdad8f533d1e3e17U, 0x3c94c9f1bd331d0dU, 0xbc2580a0bdce3ce6U, 0x3c2a897d3ab31551U,
  0xbda96ce9bcc2a1feU, 0x3d9778eabd18b049U, 0x39d8322c3daa1576U, 0xbdbb78173bf067e9U,
  0xbd82ce703d0307aaU, 0x3df0c5563b3203c8U, 0x3c404dfabd843783U, 0x3d86439f3d95ca67U,
  0xbd213b463e03509eU, 0xbd94a64e3ade3afaU, 0x3d1a13613ca25766U, 0xbc584e57bcc8741aU,
  0x3da6dd103d700962U, 0x3cc22fe2bc323e74U, 0x3d98d8adbca88fa0U, 0x3be9fb01bdbe3469U,
  0xbc838134bc40e023U, 0x3d3e96a83d1f5418U, 0xbd694df23dbf9033U, 0x3d63ae463c0ee107U,
  0xbd7f4d40bde59545U, 0x3dcfa1413da9f028U, 0xbc66e2913cac893dU, 0xbc9a44eb3d61de5aU,
  0xbdca0e3b3d729fa2U, 0xbc9098663d7a236fU, 0xbe10224dbd2e28f6U, 0x3d8f6dce3da01954U,
  0xbd558f42bd5a2b03U, 0x3ccb59ca3ba7fbadU, 0xbc6c75d1bdbe59a1U, 0x3cb11f42bb119a59U,
  0xbe047e5c3b272b23U, 0x3da655ec3b5404e7U, 0x3d2e92b73cd4d377U, 0xbdd073993c9d38efU,
  0x3ce93e713c42bea7U, 0x3da5ca413de692d5U, 0x3c3e1835bdefda95U, 0x3db6d2b3bd83ab82U,
  0xbd3f3bb2bcbefa77U, 0x3d293385bdac3894U, 0xbd8dabf93a60c7f3U, 0xbc643697bbb98054U,
  0x3c2a6e823d2cdc71U, 0x3d27c6f03da63f6cU, 0xbd9e403cbd1e7519U, 0xbd9838c5bd67d09cU,
  0x3d07c6e83d3ebaadU, 0xbd664e62bcd7c05bU, 0x3d35738fbdc08471U, 0x3d6c51eabd65f605U,
  0xbd2817e0bda40f82U, 0x3d891d063c5d9aa5U, 0xbc1ed2f33b6dfc3dU, 0xbd1e28eabdbcf3a4U,
  0xbd43d7a83da849f2U, 0x3d9a9dea3d8b1a85U, 0x3c4cda5a3ddb8059U, 0xbd52e0d9bcea4140U,
  0x3d239cdabda17b02U, 0xbd651ca53da148c0U, 0xbc99ee583cae2530U, 0xbd8fd7c2b9fd538dU,
  0xbce1a63abdef490fU, 0xbd5436ff3d54d08cU, 0x3d29398d3d904d52U, 0x3d9729db3d07a999U,
  0xbc43b63c3cd7b2deU, 0x3cdb70283dac0240U, 0xbd904998bd294b20U, 0x3d2dcdafbd3b573dU,
  0xbcf0ab75bc809f09U, 0x3cad84c23d3779e4U, 0x3d13984d3c0796b5U, 0xbcb3ba35bbc5acb2U,
  0x3d5e9fadbcc10115U, 0x3c5f6aa13ca362b3U, 0xbb92c232bbc5c016U, 0xbd7f332bbe019ae2U,
  0xbb5dcba1bcd807f5U, 0xbdb96d42bdb1b8f9U, 0x3d60c9fa3c36574aU, 0x3c759b353cc8cf9dU,
  0xbd2caf0bbbc1e676U, 0xbda3806f3cdb51b8U, 0x3dc61c9e39923eb3U, 0x3df028903d36da02U,
  0x3d834f653cfe3cacU, 0xbcf3ce28bd94267eU, 0x3c83da77bdbc786fU, 0x3d59d6883b5601eeU,
  0xbc0c47ddbcaa4259U, 0xbd0d84edbc69d0f7U, 0xbbc5b17f3d01afb9U, 0xbd0026493d2f7063U,
  0x3acfec833d77fd88U, 0x3dc9ee883e1bc9acU, 0x3d7572bcbd6276acU, 0xbcd281933d9c7eb0U,
  0x3c8e99143ca350a9U, 0xbca9085dbd94cf4dU, 0xbdab3fdabcc3782cU, 0x3d01687ebd4b32daU,
  0xbd7739b73da4513cU, 0x3c8c3786bbd748f8U, 0xbc692132bcec61bbU, 0xbd7db3bdbdd13fd6U,
  0x3cdc94433d59084dU, 0x3d6bd013bd2dc28bU, 0xbce697f03d25a278U, 0x3d9029bbbd10439aU,
  0xbd2a2bdaba15ebb1U, 0xbc87b5173b2f34f5U, 0x3d2f52d23cb487f1U, 0x3d1e609ebd10c8f5U,
  0xbd9b19b13ca03b0eU, 0x3ce65056bd9c6187U, 0x3d8adc653c881f99U, 0x3d67ccb23d6b9070U,
  0xbdd85649bdd77095U, 0x3db0b689bd17c8b8U, 0x3d48cdd03bda9e48U, 0xbb3fef37bd50c501U,
  0x3dac6fe1bcdfd699U, 0xbdbc50e93d880431U, 0x3db838cdbd9be380U, 0xbcb77e33bbe7550fU,
  0x3c220f483dbf8526U, 0x3c1fc470bc8798b5U, 0xbcbc7ae43d1f79ccU, 0xbd8a3219bc7125c9U,
  0xbdd5e586bd738e24U, 0x3d3223763d40ce87U, 0xbd1697a8bb9293edU, 0xbd1435adbd35e14dU,
  0xbdaadf903d37882dU, 0xbcc7fe123d92ec90U, 0xbb3bd8303d317e5fU, 0xbc8f566e3d9adaa9U,
  0x3ce9419b3d9cbbc1U, 0x3da86db0bccd2d82U, 0x3d839f793ced8723U, 0x3afabaec3dfe3cd2U,
  0xbd5cd855bd910c59U, 0x3d85de283d390486U, 0x3af51a563ba8f058U, 0xbce5d1ae3b4dc976U,
  0x3cd0dad63c61d6bbU, 0xbc5962393cf71048U, 0x3d5b17913df24cdfU, 0xbc97b9ec3de35846U,
  0x3dab8b3d3de785afU, 0xbda50f1a3d38c7b1U, 0x3d131b65bda02ecfU, 0x3cbcd4da3c6c1424U,
  0xbd5b847e3be30342U, 0x3daefd263d2612a4U, 0xbd270b933c76522eU, 0x3d2abb54bc7a9e6bU,
  0xbcd12e8a3be6d1c8U, 0x3d9ec6ff3dc23ebdU, 0x3d1d54df3d1112e0U, 0x3c822cb0bcd6ea26U,
  0x3d639e263df0a25fU, 0xbd59ecfebd1a9c1bU, 0xbccc6fa9bd91ac1bU, 0x3d9ab6bcbb9d6eb8U,
  0xbd441d07bcb55b96U, 0x3d11b6043deb882fU, 0x3d2977af3dac0784U, 0x3d2e3fe2bddc196aU,
  0x3d47d6663dbc4c73U, 0x3cc38f5b3d66baafU, 0x3d1574acbcaf1733U, 0x3cfb18c0bd249710U,
  0x3dc08a8dbcf1ea62U, 0x3c4ebba9bc5f3674U, 0x3db976993dc96c60U, 0xbd5fa8573cac61f1U,
  0xbbc1ad41bd88752aU, 0x3cfb703c3cbf5430U, 0xb9bca77bbe29540bU, 0xbbf07ca6bca543d2U,
  0x3bcca137bcefaa88U, 0x3d9fc7c43dc1421aU, 0x3d7b1778bcff3bcfU, 0xbdbee974bd9bc0daU,
  0x3c916a98bdcbc748U, 0xbcebb577bd53e2d8U, 0xbda531abbe0cd44eU, 0x3dc592aebd55e0ffU,
  0xbd1d77a3bd137355U, 0x3d5a1c723ab4d910U, 0x3e1e1f813e0db755U, 0x3d871431bdbaab86U,
  0xbd2789fb3d4a7ac6U, 0x3d837605bd6d0f4eU, 0x3d830d6c3d068de7U, 0x3db54a3d3d6a6b45U,
  0x3d6270263e0a8e3bU, 0xbd0417953cfc3784U, 0x3d96a003bccf18a7U, 0x3b0273973d6a105aU,
  0xbdc227a1bd60361bU, 0xbcb5897fbce60de3U, 0x3d7f3c063c76ff48U, 0x3d5d70953cd31492U,
  0xbd6721873d614731U, 0x3d7928393d9ab9cfU, 0x3d9a5b463c7c1f7dU, 0x3d6079d63c9ea754U,
  0xbc7b3896bd718390U, 0xbd83f5173da08a86U, 0xbdbc6a75bad3bfa5U, 0x3d3fe6033d95b9cdU,
  0x3ce01373bd057f0aU, 0x3dd0a59e3ca0d196U, 0x3c8550f0bd3ca9eaU, 0x3cc1b1d8bd4b0419U,
  0xbd304ebd3d6e3549U, 0xbd2961943d94fd56U, 0xb824f0293cd7d316U, 0xbd1c1276bd183c48U,
  0xbc8210b0bda738eaU, 0x3d461a69bc4969c3U, 0xbc34c2913c8953daU, 0xbd3f3d843cbbffa8U,
  0x3ca352bf3d76ad7eU, 0xbd0014cd3d2377e6U, 0x3d700e3ebc3bb90aU, 0x3d2fbf98bc997058U,
  0x3d1dc2473df478e8U, 0x3d6604a13d833a65U, 0xbd13f94c3d33aa37U, 0xbde33325bde0e0deU,
  0xbd99bf973dbfedf9U, 0xbd56ec5cbbc15f69U, 0x3c064bb23d0334ebU, 0x3d85d4e93c1d78c9U,
  0xbc720b5dbd9f15a5U, 0xbd646b233c00d192U, 0x3d01692f3d317284U, 0xbd84e8d13d25264dU,
  0xbc19912b3d59ea3eU, 0xbd83f4ebbd399308U, 0x3d4ce8843db78bd0U, 0x3d7aa0e23b88e0bcU,
  0x3d1dea97bccdedd9U, 0x3d2d51d1bcf6ff53U, 0x3cb8c6e2bce7811eU, 0x3cc6aecfbc816609U,
  0x3c20134f3c94f1bcU, 0xbdc230b53d3326dbU, 0xbc3caaaf3d9b0a75U, 0xbd805a29bd6c8104U,
  0xbd3bec21bcf0ce6cU, 0xbd83a651bd3bdb7aU, 0xbd39cc1abb35dd41U, 0xbcd63634bdca11a7U,
  0xbd9e3daabd1997f1U, 0x3d47c6af3cf38dd7U, 0x3dca5a4c3cb7fb6bU, 0x3cc57fabbd050f70U,
  0x3d7465ac3dc6f6c2U, 0xbce84797bd2ac0d7U, 0xbd2e9df13c294653U, 0x3dc492d53df2cf86U,
  0xbd95e1a4bd971fabU, 0xbcd012f43c453355U, 0xbb3ebb9b3c9ae73aU, 0xbd759f73bd8521bcU,
  0xbd943ebd3d11d495U, 0xbcfb4dfdbde5a72aU, 0xbc9a2eca3d63371aU, 0xbd76be8e3d825708U,
  0xbd2f42b2bda0108bU, 0xbd3867363b431383U, 0xbd85805d3da768e5U, 0xbd30ede4bd329987U,
  0x3d6051a3bd6a52beU, 0x3bf9a54f3dba2801U, 0x3d12d8763dcecf62U, 0xbd5376603db9fcc3U,
  0xbdce7b953d98ac94U, 0xbcaf8f99bd941987U, 0x3d735b583d44fc5dU, 0xbc5acce83e017125U,
  0x3c26388b3dd308a3U, 0xbc7c52943dad66ddU, 0x3c9e28203d88473bU, 0x3dc903a9bcf22552U,
  0x3d50244c3d3bd5d6U, 0x3d1451203d1a309eU, 0x3d472a663d88eccfU, 0xbd18b80c3d4f59faU,
  0xbbdc16113d66d5eaU, 0xbd03e8743d6ea0f3U, 0xbd5bee8f3d85d186U, 0x3c352a3ebd5713e7U,
  0x3d33eeea3de7d79eU, 0x3dee5ed2bd1a166bU, 0x3d8f4636bc4a3a13U, 0xbd03135f3c6224e0U,
  0xbc7eeac03dcf7898U, 0x3d15db413b856d1aU, 0xbcd6b6723d42f943U, 0x3d84d9973dc6644aU,
  0x3d59cafbbd28f338U, 0x3dc669f4bd9aa24eU, 0xbdc89aa2bd45951bU, 0x3b19ebe13c4d1aafU,
  0xbd4671d0bd08dd96U, 0x3d379d36bcc8d817U, 0x3d91e4dd3dd9f343U, 0x3ddb51463c5b9957U,
  0xbd404c913d9f3461U, 0x3db08c123d09cf29U, 0xbdabb2b8be07dd37U, 0x3b8a9369bc8cae57U,
  0xbd3ad7f33cec409bU, 0xbcf769953d998c3bU, 0xbd0a69043db4d656U, 0x3dd3ba54bda5feb5U,
  0xbcb01c96bd94b18dU, 0xbd21d82fbcc96b84U, 0x3d89d1d43dd5f1a5U, 0xbbf783563cd239dfU,
  0xbd208dd1bcc8cb17U, 0xbd5bc124be093243U, 0xbdf4669dbd34de98U, 0xbc861e76bdb5cd3eU,
  0xbd7363b83dae8dc4U, 0x3d8cbfc63bca1f42U, 0x3d52a1af3ddbbd0aU, 0xbd2bfcf93cabc60fU,
  0xbd67773fbc9bdc66U, 0xbd390e183d1a024bU, 0x3c9773c43d6af75cU, 0xbc7b7ed33d83a850U,
  0xbd85b5a9bcf706beU, 0xbd0853c43bf4dce2U, 0xbd374cbc3d930b30U, 0xbdae9db0bcfd3d8fU,
  0x3e232f193bf6d421U, 0x3d274fd93d901b56U, 0xbc56ea66bd6dcdd5U, 0x3d79cbfd3d3f0f30U,
  0xbd95943a3b8745c4U, 0xbd8b035a3d3d5ec6U, 0x3d94993d3d9c3823U, 0x3c3d4f803de1392aU,
  0xbcdd7cae3d363db9U, 0x3dad6582bd0946dbU, 0x3cb5e81a3d5819e4U, 0xbdb11384bdee5c42U,
  0x3d332b353d606f57U, 0xbbb60be43d11b972U, 0x3bde61a13cbe6540U, 0x3dde29d43de84b40U,
  0xbced84e5bd632f51U, 0xbc681ff3bb6e8c7fU, 0xbc8801123bdc4a73U, 0xbd867e683d7fc953U,
  0x3d97eaf1bd85f76aU, 0xbcb7e8cc3d9b6d8dU, 0x3dadcf90bcc07c20U, 0xbd8f01593e07be7cU,
  0x3dd41e793d3f57deU, 0xbd218699bd770dcdU, 0x3da24544bc0994fcU, 0x3d94072c3db35b09U,
  0x3c04d5773d94b6f3U, 0xbc7597c7bd3858ceU, 0xbb5bddec3d2f4badU, 0xbcacb9263c6eb105U,
  0x3d105f22bbe3ecf1U, 0xbd7369cbbd7d7d5eU, 0x3cb2b00cbd0d95d2U, 0xbc6257eb3dd95057U,
  0xbc41421dbe044c6fU, 0xbbaa3241bd030150U, 0xbcaab4363d6daf72U, 0x3d0361a13ddaad91U,
  0xbd79daccbd193be6U, 0xbe0f7cefbc42f5ecU, 0x3db95d1abd334621U, 0x3c36fbf03c4d92d5U,
  0x3dec45a23cd540d1U, 0x3e19454e3be916d5U, 0x3d2ddae43d174780U, 0x3d4e3a4e3d703614U,
  0x3d88e40bbd87e05eU, 0xbda427ad3d6eb73aU, 0x3d653c143b4bbf58U, 0x3d90b5483e063355U,
  0x3d9d1d253dd233b8U, 0xbd667bc4bcc465a6U, 0xbdbe0d22bcd822ceU, 0xbe4cb4a8bdf4c65aU,
  0xbd494a88bdabd5c1U, 0xbd82c479bd8d10e2U, 0xbca3d9a13da8df6eU, 0xbbbc24703dd2891bU,
  0x3d71b11b3d1776a4U, 0xbd38b587bd69fe45U, 0x3e01bf1f3da850d1U, 0xbd06af76bd0f4b73U,
  0x3d4fb6fd3d8d2905U, 0xbdea8929bd96b5eeU, 0xbb7776c23da1179dU, 0x3c9e269fbd90a991U,
  0x3cf839cf3af49c9cU, 0x3c8213c8bd8e9810U, 0xbcaa78bf3df90443U, 0xbd38d7e7bdce285eU,
  0xbd08e3353c185d43U, 0xbe00dde1bcb2196eU, 0x3d39012abb4671aaU, 0x3d78d0ef3d00f98fU,
  0xbd14b1d6bace70beU, 0x3daff0f53d523746U, 0xbda867613d9a4f3dU, 0x3d5c078dbd72f3f9U,
  0x3d3937783d99d9e0U, 0xbd2835193de22e27U, 0xbd80811bbd26ed6aU, 0xbc73a197babb2be6U,
  0xbd5958193e01716fU, 0x3ca859833cd45006U, 0xbcb644713e0758f7U, 0x3bbe4be4bcd4da5eU,
  0xbaa9de6bbc4646bfU, 0x3bfb61b93da12fcdU, 0xbd445c923d47fce8U, 0xbdb10021bc022c45U,
  0x3d1ab4f1bc8af080U, 0xbd09d391bdc8715cU, 0x3debafad3d2a8dafU, 0xbc92412bbc80417aU,
  0xbc335a0fbd96d60cU, 0xbc7b862dbd504d8cU, 0x3dd351a53dcbac7cU, 0xbce8a9083d92d38fU,
  0x3e1c4ff93c24abb9U, 0xbb8c6190bd3b966fU, 0x3d5cecdfbd682e39U, 0xbd9c84483d972552U,
  0x3dc476803b634d7eU, 0x3dc30a2abd8f296cU, 0xbbb5148a3d1c6feaU, 0xbd0637ce3d4672f1U,
  0x3d0d59333e1ebe6fU, 0xbcd4988dbd6421d3U, 0xbd45ba4bbd32e4adU, 0xbda35e84bd9d9d77U,
  0x3d9c1caabc9dacebU, 0xbd2891c83e0c920dU, 0xbcdf51653e0766beU, 0x3d905369bcb4cf93U,
  0xbd3edb113dc9978dU, 0xbd0241dc3d606838U, 0x3cc0907dbbbcb2c9U, 0x3d541e30bc9d6950U,
  0x3d99c603bcafe6b3U, 0x3b2812f1bdd27a8bU, 0xbd7308ee3e0a7427U, 0x3bd329d63dd61615U,
  0xbd95770d3d4e381cU, 0x3d61e44e3d6f1bb1U, 0xbda2459bbc7ab4fcU, 0xbc6e17183c440914U,
  0x3cefcff93e16d899U, 0x3cdab1de3d33211fU, 0xbc56f4b1bc946642U, 0x3d114d283d99939eU,
  0x3c3b3509bd1d218bU, 0x3d14029b3de40e99U, 0x3d0820c3bdd71358U, 0xbd6ad072bcb4f2f4U,
  0xbc5c8d003c6c5178U, 0x3d7dff193d8c591cU, 0x3d7400fd3e0b8aa7U, 0xbc0780353cb60fc4U,
  0x3d854da23dc4dba5U, 0xbd1e6208bdb4c014U, 0xbd237c29bdbbf54aU, 0x3d4a997cbdc52c66U,
  0x3d1479a53c7b284eU, 0x3da9e50d3e04cc93U, 0xbc66281abda62140U, 0xbcb20e22bdcc4238U,
  0x3da5149d3daa2bdbU, 0x3d474d5a3d10fe69U, 0xbd9daf993d125f58U, 0xbce7b2cfba0ae11cU,
  0x3cf1010e3e262811U, 0x3d8307f73d6a8675U, 0x3cd78385bddaa0c5U, 0x3d45d108bbb88eb8U,
  0x3d2891ab3d2c8b0cU, 0xbda82ed73c7230a1U, 0x3dc8e0263d5a6a49U, 0xbd124ef93d9e0c9eU,
  0xbd6589c63d6c9d0aU, 0xbd84fc413d538d2bU, 0x3d4b512a3d8adb41U, 0x3cf444913db63dc8U,
  0xbdd32b1dbd2f78dbU, 0x3ce88699bdfea965U, 0x3d6ffdd13d899feaU, 0x3cf6fdfc3c07186aU,
  0xbc9042283bcc47ddU, 0x3d1ff32dbd42bd39U, 0x3beba059bc719ca5U, 0xbd7b6d71bd5b2678U,
  0x3cf132bcbd126a90U, 0x3c2befcd3dad693cU, 0xbde79cc4bc838ebaU, 0x3d1b4c8ebd086e0fU,
  0xbd9c28c63d7ed762U, 0xbdc676343c64c61eU, 0xbcde21ccbd84864eU, 0xbc398632bdb50cd5U,
  0xbc17ba68bd5ea16eU, 0x3dc9dfd13bc6726bU, 0xbd82f339bd23eddaU, 0xbd00ebcabda8e585U,
  0xbd87abce3c26bb6aU, 0x3dae16ae3d9c854fU, 0x3dafe1ab3c1f6302U, 0xbd64b34fbb255171U,
  0x3c223aee3dd4f238U, 0xbd2b9647bdcf500aU, 0xbda85bf4bd749507U, 0x3cb1d8ba3d22e590U,
  0x3d8b9711bda47deeU, 0x3d4a82213d885372U, 0xbdb0848c3d89b59fU, 0xbd14a8113d933f93U,
  0xbdadb0fe3b963141U, 0x3d7d83dfbcfcba9bU, 0xbd8e4fecbd89fc66U, 0x3dbbeb76be15319eU,
  0xbd21cada3cad7f2cU, 0x3d8f240e3d3cf9cbU, 0xbd2dd93abb733633U, 0xbc9bca323d54fb8dU,
  0xbd591910bdb31102U, 0x3d78d5dabdaa2e5cU, 0xbcfda3a93d170c95U, 0xbd0097833dcd3e31U,
  0x3d26c63abd3f50e1U, 0x3d3eca1d3de071efU, 0xbd46c0d4be06dabbU, 0x3d6c70fabdd078adU,
  0xbcf16a2bbd92df43U, 0xbc3012703de317dfU, 0xbd1032943dd4c291U, 0xbc898d85bd0060edU,
  0x3d558cd43bfcab1bU, 0xbcb70157bcda85f2U, 0xbdc7b1d9bda2f7a9U, 0x3cc9aaa5bbc0be66U,
  0xbdf6ab32bd79c171U, 0x3d1936dc3cabce7aU, 0x3d289b493d8b04cdU, 0xbd4448333e05edbeU,
  0xbd6e85ebbd87063fU, 0xbcc6f77dbd9c60d0U, 0xbcb41f3fbdea6858U, 0xbc0779663d03bd4fU,
  0x3d8db9863da07fc3U, 0xbdb00dbd3dbb6af9U, 0x3d8bacd5bbfba1e2U, 0x3e132da03c735d03U,
  0x3b534bb7bc90f551U, 0x3c1a247d3dc426b9U, 0x3cdfeaca3d85d44fU, 0x3df4d6df3c2a8280U,
  0xbd7cbc4d3d4bea1bU, 0xbdb7c6cc3cbdb76cU, 0x3ce746133dc87990U, 0xbdee1261bd80bc5aU,
  0xbd197ca6bd7f2d94U, 0xbcef2abd3dbbfd5cU, 0x3b8c79fabd9905c0U, 0xbd0bcebb3d402933U,
  0xbd80c98abdb56bb0U, 0x3dd440fcbd7c042bU, 0xbbc324a13d525322U, 0x3da3c5d8bc5c9f86U,
  0x3d9b1136bd2f3f4aU, 0xbde0ee2e3c2e388fU, 0x3b3238eabdd7dfebU, 0x3d55af2a3dcefbcdU,
  0xbd582252bd30253bU, 0x3d275b523d3cb9dcU, 0xbd714b113cb1f6c2U, 0x3d3ae58dbd3919f0U,
  0xbb0bc8613c72123bU, 0xbd84f2333de1e6a7U, 0xbda65556bcb9a1abU, 0xbd79795f3d5556e3U,
  0x3d476b8e3ce24d67U, 0x3da382133d3b3a31U, 0xbd0e529cbdb6c2abU, 0xbdc459bd3d20903bU,
  0xbd8076e9bc2cf83cU, 0xbd8e4d013cfba545U, 0xbdb41343bd8b1f9dU, 0xbd34d0063c20c167U,
  0xbcbccf263da0bc5dU, 0xbd560e1d390c04d7U, 0xbdc9b8e83d3ead24U, 0xbd587f0bbd0cc120U,
  0x3c8ed4f73ac45354U, 0x3d6276713c67cac6U, 0x3cd323aabc3d0640U, 0x3cd2308a3d069e82U,
  0xbc5d3e833d30ba7dU, 0xbd5e21663d012802U, 0x3c4936e4bca095c8U, 0xbc8a278bbcc31c20U,
  0xbd5fe6e7bde8a0beU, 0xbd998af83d4a9c13U, 0x3ddd64b83ce78b7cU, 0x3dc5bd433dad67a1U,
  0x3c8c35e8bd92aeebU, 0xbd2782783d558c9bU, 0x3d15605b3da67183U, 0x3d71bc15bd0bcd73U,
  0x3cbb32bc3d80fd76U, 0x3b98b1ecb89cb14fU, 0x3d291e173cf46bb0U, 0x3c4308013d211393U,
  0x3d23aa32bd1159ffU, 0xbd1f89503cb0dadcU, 0xbd2e96e43caf6aabU, 0xbcdf80173c00c6c2U,
  0xbd4662bcbd0625e4U, 0x3c22af8e3d3ab266U, 0xbd8086abbdb4759eU, 0x3b1febb73c451ddaU,
  0xbcc2b88fbdb8c824U, 0x3d5b8986bd51f93fU, 0xbd1d7a823db0cae6U, 0xbc1ddb0b3d0f2289U,
  0xbd156899bd29af95U, 0xbd5199a4bd30d614U, 0x3c99683c3cb044daU, 0xbd53101f3d74c993U,
  0xbda167323d657546U, 0xbd57a7dabde78beeU, 0x3dab1836ba0acb6fU, 0xbd856c913c5f6754U,
  0x3bbacb19bb9f9e79U, 0xbd129a2d3d46c226U, 0x3dc513bdbb99efafU, 0x3d5d17153dc2b66eU,
  0xbdc22a05bdb06ba8U, 0x3d4c8966bdaf3b97U, 0x3d6a10ccbbd9349cU, 0xbdb4c9dd3d78a257U,
  0x3d4d86613a9a25adU, 0x3d1fcbbfbd0dca31U, 0xbc3d416fbcddfdf4U, 0xbd4033debd045d0bU,
  0x3d15e23cbdd2983eU, 0xbe1d8096bd6f961fU, 0x3c39b8cd3d33bb06U, 0xbd37bda1bd38772fU,
  0xbde5f337bd9eddd8U, 0x3bf3f927bd84a7d0U, 0xbd7348803cde106eU, 0xbc9e47223c8eb770U,
  0x3dacf2093da7eb61U, 0x3bded9373df4713fU, 0xbcdb404e3d60b8bbU, 0x3dc26dd93cc67951U,
  0x3dc0e76cbd8fa5edU, 0xbb5d7225bb19aa9bU, 0x3dccfc1f3df61249U, 0x3db632febcdd8e36U,
  0x3c61f2083dbb9313U, 0xbdd0afe3bd86b044U, 0xbc91c24a3d8dd05eU, 0xbc5c29353bea4ee1U,
  0xbda50b20bc8026feU, 0x3d57a2793c9a1d24U, 0xbe02d2a73c425f5fU, 0xba267b653c3c7bf9U,
  0x3dd604423dab7e75U, 0xb93ad3363d5145eaU, 0x3cf0a0e2bcd1101dU, 0x3d6f6a41bd84ccf6U,
  0x3cfa12553d761019U, 0xbd10fa42bce02c9aU, 0xbc09e14a3d3354a1U, 0xbc14e02d3d97bfa9U,
  0xbd0d9a8b3dc0859aU, 0x3d867388bd82afdcU, 0xbd9bf0bd3dbbd96eU, 0x3d15cca8bcc6ece4U,
  0xbd91e958bc82b75dU, 0xbd87aa5b3cb2f0a6U, 0xbd7f2e433cd609bbU, 0x3d6a138d3d8b100fU,
  0xbe132b3f3d8bd613U, 0x3d280946bd01487eU, 0x3d5d0918bada6c1aU, 0x3dadaacc3d9c1d6dU,
  0x3d77110b3d17b1b7U, 0xbd11dae13d9a673bU, 0x3b8ad524bc3bc34aU, 0xbc20f19bb9becfe6U,
  0x3d7baa4e3d059adcU, 0xbc433fe03ce69d66U, 0x3cc9232d3cd2da5fU, 0xbb7e49683b69485fU,
  0xbceb92493ce8751bU, 0x3d86b3c7bdd41585U, 0xbc4ad9723dbdf984U, 0xbd8532c13c98902bU,
  0x3d1e385bbc70d4d8U, 0x3d377b273d1428ccU, 0xbc25aecebb9fd861U, 0x3c1baf9f3b95d362U,
  0xbd199caf3ca59617U, 0x3d8f4d013dd81f8cU, 0x3cf034483d8318f0U, 0x3d0912d5bc43226aU,
  0xbdc63a8ebbc8e674U, 0x3c8c65e03d353badU, 0xbd6c8b7cbd4f1e5fU, 0x3cb2f6f3bcacfeacU,
  0x3cad83083c2c1a00U, 0x3d40d6423d8eda4eU, 0xbd1667dbbd350e28U, 0x3d7c37e8bce5220bU,
  0xbb50cdd33d78f3a2U, 0x3d73c6123dab825cU, 0x3c8136dcbb885832U, 0x3d37566a3dba0b29U,
  0x3c49d6edbc46bcf0U, 0x3d408e223d636eccU, 0xbc2e4404bd1b9d74U, 0x3d1e6c79bdb398a7U,
  0xbc616c84bd220a59U, 0xbcb112e1bbf1483eU, 0xbc862a68bd082c60U, 0x3d7e78d8bbe725d5U,
  0x3d7a63233bb51dd3U, 0x3c96a5e33a3b2207U, 0x3d8044e33e1046edU, 0x3dc71d403d546bbeU,
  0x3d28f9b73cb3c943U, 0x3cb79ea23d474765U, 0x3ca21ba4bc0d763eU, 0x3cc8aad33c56fd35U,
  0x3cb6b7d23db61119U, 0x3d5beef23d2cdc6bU, 0x3dc0a4cd3c0a671aU, 0xbc3cc1ecbc314b03U,
  0xbc883ebd3db245d8U, 0x3dc48e293da3f6b7U, 0x3c32b2b53d4fb9b9U, 0x3d3a2b433d00681aU,
  0xbcefa1eb3da9d052U, 0xbd0a2a57bc3ad83fU, 0x3acd3e2cbbef06a0U, 0x3cf68a3ebcef8c22U,
  0x3a93b823bc8daaa2U, 0xbd22f3b23994bf7fU, 0xbdb88be53dbd2e75U, 0x3df0f7363d47152eU,
  0xbd1a57323d266b5dU, 0xbce3b2f13cfb79d4U, 0x3c4f8670bc8000c2U, 0xb908fc5c3c9b2c93U,
  0xbd42fe1c3ca51f4aU, 0x3cc0cdaf3d0d322eU, 0x3d3182523c593aadU, 0xbd1e208a3ce19a6dU,
  0xbd0fb98c3cb2129fU, 0x3cece9903d984df3U, 0xbbd07fa9bd7c3f5cU, 0xbb0e1ad73d34996cU,
  0x3d2db3c63d2c8f1bU, 0xbd2666583cd9a255U, 0x3d0c26df3d5143a3U, 0xbd1c0b1a3cb98d91U,
  0xbd8996e0bccb97d4U, 0xbd373de53c045703U, 0x3c1eb0463cf308e9U, 0x3bad0e403cf9ce90U,
  0xbdc467243da024e3U, 0xbc151000bc92d874U, 0x3d3f1931bcaabfacU, 0x3c3543be3c4db253U,
  0x3c4167eabd1b74deU, 0x3c9ec71b3ba3ad80U, 0x3cddc757bd3c5232U, 0xbc980b143d79cc75U,
  0xbdf35f303cc35a7bU, 0xbcbe15d6bdaaef45U, 0x3c4f7bad3c3cfc4aU, 0xbd838cb43d0c26f8U,
  0xbd3be095bca74e3eU, 0xbd2eaef13c78cb37U, 0x3ce2b27b3ca05953U, 0xbd478f503d2aaf44U,
  0x3cbd05453d9089dfU, 0x3cb3e9b8bc12d603U, 0x3d0cc056bd96f131U, 0xbd8008b23da42cebU,
  0x3c83cb073d9a2bbaU, 0x3cfdd5403c747f7fU, 0xbd073c2a3e10e356U, 0xbc8be0273d8b9225U,
  0x3d9c77f33d97cf12U, 0x3da5f8133e0328dbU, 0x3de603e43dd29896U, 0x3ddf0c5d3d061edeU,
  0x3d54e6cbbcc05ef0U, 0x3dd332fe3d8210c7U, 0x3d9791af3d1bbd7fU, 0x3da05a893cf61707U,
  0x3d5bf6763d851abbU, 0x3d685670bc9fb197U, 0x3d21b2523b6b29eaU, 0x3dca82683e25fbceU,
  0x3c279b5e3d5a2bc1U, 0x3d8a70be3d1f4da2U, 0xbd051fbe3d415562U, 0x3d68a4593d692d53U,
  0x3d67a35c3d36de81U, 0x3df7e1f23da77ce4U, 0x3e3621a83e0ef258U, 0x3c2cb0c43d9a85c5U,
  0x3e192a2db9c9ac57U, 0x3d92fe6e3e05c3f8U, 0x3d8f0aee3db41b22U, 0x3dcb228f3cfcc630U,
  0x3dc9df6c3cedc3f9U, 0x3db1583abc4a7062U, 0xbd2e314e3dce4735U, 0x3dd924683dadfa57U,
  0x3d0c12d63dc79579U, 0x3d3dfcde3d023881U, 0x3e25e9e23daca6f5U, 0x3bf290153d03e233U,
  0x3d9553fd3ce81a00U, 0x3bf64ae33d2b7b2bU, 0x3d83cf033daf7d49U, 0x3e253bd43dcbf870U,
  0x3d5935f43dde0920U, 0x3e033de23da2a3b6U, 0x3e2fea943d698513U, 0x3da463a93d62e59fU,
  0x3cc1d4633d7ce3feU, 0x3d9e5c223db42d36U, 0x3da050cf3e0c14efU, 0x3db8a2423d2d8612U,
  0x3d6079d93da3a15aU, 0x3c91c6663c5407f8U, 0xbcde74823d8fbcf2U, 0x3d3e01353db9ad53U,
  0x3de038463dca1723U, 0x3c88f61a3d0c6f51U, 0x3d9f31293dbd84ffU, 0x3e55c5803e164f17U,
  0x3c17aaad3e113a4dU, 0xbc75166e3e02e1c4U, 0x3d9d04fc3d88b253U, 0x3cdf93bf3d9709baU,
  0x3d15a5a43dbf360dU, 0x3dc5bb403de526eeU, 0x3d94f0f23dda8fc9U, 0x3e042b093c1e425eU,
  0x3db6beee3d6fa74eU, 0x3d9e25f83cc6834eU, 0x3df83dbd3d6cfdbcU, 0x3de412fc3daeb516U,
  0x3de55e863d699e99U, 0x3d9812b73e04930bU, 0x3dbcd6213de8ef4dU, 0x3d1d9a0e3d97bcc0U,
  0x3de03b733d85fbdbU, 0x3d99c6a73d914062U, 0x3dbefb5a3cd8b6bfU, 0x3db18da63e4d0055U,
  0x3d6c3ed23dc9b141U, 0x3c5c0eb7bbaa558bU, 0x3c33faea3d6a7568U, 0x3d298d643d80c6b9U,
  0xbb796db6bb297976U, 0x3d6034f33de7691eU, 0x3d7880233dcf7c66U, 0x3d5c44553dc2a889U,
  0x3d49acdc3cffef86U, 0x3c9948723d959f15U, 0x3df850583dcc10c5U, 0xbc2782c83dcb617cU,
  0xbc528f513d5c738fU, 0x3d87f5193d99b6a0U, 0x3d898f5dbc3e10fcU, 0x3b67287f3d4f1af9U,
  0x3d99449d3d8fed68U, 0xbd01f2683d9831d1U, 0x3da794dcbc56ef13U, 0x3cea19123d1e3c1aU,
  0xbdbd02f43c99b147U, 0xbd884aa23cb01768U, 0x3bb0412bbd90bb6dU, 0xbdc0b7dcbd8c7ef6U,
  0x3d207523bcbd55ceU, 0xbce3fa833d89d629U, 0xbb942651bd045a95U, 0xbc5744733b36fac0U,
  0xbaac9b0a3c7205eeU, 0xbd21097dbd574420U, 0x3b969045bd89daf7U, 0xbdd65f7dbda50771U,
  0x3da294fbbc1245d6U, 0xbd95178cbdb8afd8U, 0xbc3a5c45bdd0cb9eU, 0xbd9588f7bca59611U,
  0xbc7760fd3c3cc419U, 0x3c9c7eaebd778238U, 0xbd795187bcfd0ba0U, 0xbd9f71e43c9097caU,
  0xbcb6cf03bd06357dU, 0xbd48eb9cbd6a1aa6U, 0x3d0c245bbc76f620U, 0x3cb71830bdd18629U,
  0x3c97a0683cce58cfU, 0x3bee889cbcf8a54eU, 0x3d918c3a3bcd45c3U, 0xbd612874bdcccc0cU,
  0xbdd97e02bc813733U, 0xbceb3180bd72264cU, 0xbd25d221bd4ccff5U, 0x3c90fa1abd247b86U,
  0x3d2adb1dbd7d56d2U, 0xbd3c7a12bcb404f1U, 0xbd78ebd33d2b0cdbU, 0x3cb7c91ebc6e05c9U,
  0xbd83be273be6109bU, 0xbd3d4f6b3c156c09U, 0x3b1f535bbca994f0U, 0xbc87404dbcbefa68U,
  0xbdcc8839bcf546c8U, 0x3caa43b1bd4b2c6aU, 0xbd315402bcdb4a0dU, 0xbd7b7e4abd8daecbU,
  0xbcd44ed13cfd7c0eU, 0xbd09177bbd699429U, 0xbbbcfb5b3ce87fa3U, 0xbd5f94abbd25bbc9U,
  0xbc8ddfeabdbd5752U, 0x3c4ddfddbd877893U, 0x3b1dc554bd388080U, 0xbdc924e5be06f06bU,
  0xbd56ada3bb6fa12bU, 0x3cb278babda5242aU, 0xbdc1f260397715c7U, 0xbc010804bd8cb6fcU,
  0xbd4fa6f8bbf7ff9eU, 0xbaa5f6cfbd854833U, 0xbd259439bda1da51U, 0x3c9bb5793c7cb46fU,
  0xbd253ff53ce2fa3cU, 0x3d4e66b4bbb4d4fbU, 0xbb8b143dbd7dc5e2U, 0x3d11907f3cf078c9U,
  0x3d285822bd01bb07U, 0x3d0dc41dbb85efeaU, 0xbd015343bdb74cdeU, 0x3c6731043da44df2U,
  0xbdd9ef73bded979aU, 0xbdc7c035bd14f784U, 0xbd5f02f2bc0d948aU, 0xbd03690ebe1f94a6U,
  0xbd2b8c57bd73b287U, 0xbdbe9193bd904eebU, 0xbc198908b9ee11c7U, 0xbcb751f53cd0354eU,
  0xbd61edc2bce27011U, 0xbd7ff112bd865f35U, 0xbd7f845cbd8fcfe2U, 0xbc3a3cffbd7202e5U,
  0xbd00f02e3d262c21U, 0xbc1de788bddda76dU, 0x3d248692bcab2ef5U, 0xbd0b86943cc8ff8fU,
  0xbd9c1383bd2a8364U, 0xbd37c32abbec9661U, 0x3d938d473cec7292U, 0xbd61af99bd5974e1U,
  0x3c80dfbcbd04be40U, 0xbd461210bd031c7fU, 0xbd3748d4bd6a9beaU, 0xbddbdbc1bd6b61f2U,
  0xbb20cff5bd6da0c7U, 0xbe0a761ebd5f2b28U, 0x3d1d6c7cbd282c4dU, 0xbc997f3bbbf99b14U,
  0x3cb259fc3be1d52fU, 0x3d1ef1df3d43eb3fU, 0x3bd0f6d13d0a7724U, 0xbb4712b23dc17ac3U,
  0x3d509e983e0f60f4U, 0x3d8952583dac650cU, 0xbc3c14e73decbb45U, 0x3dc8fed23db8b667U,
  0x3d3824713da98d02U, 0x3d7f164a3d63cb75U, 0x3dd60a793ce77445U, 0x3e0546cd3d7653b8U,
  0x3d43c2743ce9bcbfU, 0x3dd7dbb53c457fa4U, 0xbcba91d03d992decU, 0x3d6b00903c78d3a4U,
  0x3d0afe1e3d8a4d59U, 0x3d00e3c03d9dc040U, 0x3d480b8a3d41f65eU, 0x3d792040bc93053eU,
  0x3d1bd9cc3d1ac1ffU, 0x3d92ee103d7b3b79U, 0x3dc30f173d6c3402U, 0x3dfdd4703dfdfe19U,
  0x3dba2e4b3d3ceb98U, 0x3db685e03d6af943U, 0x3cd84e9d3d631c26U, 0x3d436a373dc7be81U,
  0x3d477a0a3d43af36U, 0x3db8f350bcef74e3U, 0x3d08d07c3e422883U, 0x3d4dd3abbcab9c27U,
  0x3c2a39ec3cb8651eU, 0x3cc386efbc9fc01cU, 0x3d97e9643dc45b2eU, 0x3d8278893c03bb8bU,
  0x3d0eb29c3d8021b1U, 0x3cd9686c3d5652a1U, 0x3da88dc73d9598a9U, 0x3dde70443d90bfa7U,
  0x3d80d6a43d9498abU, 0x3db78ecd3d7176b3U, 0x3d869cd5bd974190U, 0x3d37f6f23d88ed7dU,
  0xbc92bd413d887a6aU, 0x3d6c218d3dd7348dU, 0x3d75a6bb3dc19130U, 0x3d1c74a33c81d290U,
  0x3b1da11e3d8020faU, 0xbd3e8c983d77cf67U, 0xbd024c8c3daf3c32U, 0x3d475acd3c880c20U,
  0x3de314363d5dd938U, 0x3ce415a13d73b722U, 0x3d88ffc43dbc2f67U, 0x3dd1137c3dbca6b9U,
  0x3d7386323d6f308aU, 0x3d93f80a3dcabf14U, 0x3d9803ae3bd189c4U, 0x3cc990fb3d63f451U,
  0xbcb3a41a3d941af1U, 0x3db6e6073d880201U, 0x3da78f673c47e485U, 0x3e15b8123ce6efa2U,
  0x3d256df93d40a8b7U, 0x3dab084a3dbbfec6U, 0x3d82cc3c3d1b167bU, 0x3d431dae3dba8dd9U,
  0x3d6ab90f3de85da9U, 0x3d73efa53cf28249U, 0x3d975ce13cefb6b2U, 0x3b87c00ebc43932eU,
  0x3ccb6c053c74c40fU, 0xbd0cb25a3d8de5b1U, 0x3e1b12863c40317eU, 0x3d5c16743dad2aeaU,
  0x3d6eeded3dc14ef0U, 0xbc81d2523d450568U, 0xbd8541323d63b1b3U, 0x3d5b29c43d38d424U,
  0x3bd8f3b83d13c1abU, 0x3d8bd0723dc916a1U, 0x3d7552213e002a7aU, 0xbca1ee823e11f690U,
  0xbb3427d93d4c103cU, 0xbb7d4c3bbb7c1eafU, 0x3db06aa93da2921dU, 0xbc4ad5623c3533f0U,
  0xbd385b433d96bad2U, 0xbd800a303dd84e24U, 0x3d7cb2443aae51c2U, 0xbb834ac73d78b879U,
  0x3dbd558a3da16a6bU, 0x3bbde4f03c274adbU, 0x3dda94633d832404U, 0x3c1cc1b33d0a79a7U,
  0x3b300ac53cbdb548U, 0x3d3f54a83de62b45U, 0x3baf235dbd2f27a1U, 0x3a336dbb3e0d4b6bU,
  0xbd070c453cb26ad3U, 0x3ded6c673d29b3dcU, 0x3d573e913d4c87d8U, 0x3dc6a8dc3dc44b51U,
  0x3d0193d63c9e47e8U, 0x3d260c463de3922dU, 0x3e030a983d5baae5U, 0x3d87c0883c095dbaU,
  0x3da71b12bc2940fcU, 0x3dc6b739bbed5ad4U, 0x3bf325593d5d69acU, 0x3da12f6e3caf7962U,
  0x3dbadf403da72ff9U, 0x3d853e5bbb030bb3U, 0x3d1255933d5cf986U, 0x3d8b55d43d84243cU,
  0x3d3de03cbcce8aa8U, 0x3d9fb4d63deb15b8U, 0x3b4b9dcf3d57c621U, 0x3c68f82f3db57f92U,
  0x3d42bb073ccd2d02U, 0x3da1f5733d96a683U, 0x3cadd4123d3e039cU, 0x3d9c7bd43dd94727U,
  0x3cce82583dd2f177U, 0x3e02e68b3d503324U, 0x3d995e1f3d6ed5eaU, 0x3dfa8608bd58e1c8U,
  0x3e1656133da56da9U, 0x3c11858e3c8da16eU, 0x3d9d62e439c6a323U, 0x3ce91fc43dc03c75U,
  0x3d49ef9a3d619868U, 0xbc9a0225bd089682U, 0xbc079eb13cecd65eU, 0x3e271b9f3cf62776U,
  0x3c0724e13d6ebd86U, 0x3dce81973d7d2dceU, 0x3d6d8d0f3dacbf0aU, 0x3c1986493d0f6d8bU,
  0x3d9c79903daf5916U, 0x3d6b9bed3d7bb555U, 0x3dcad2963e13ef42U, 0x3e0014e73d45e9a2U,
  0x3df4982f3d857c93U, 0x3d35aee93dec9a8fU, 0x3c01a2bd3d962891U, 0x3cfe8f083d1835b4U,
  0x3e00983a3d40b619U, 0x3d7edc863d18f1ccU, 0x3ccb273f3d9e1b71U, 0x3ded76cc3e061cafU,
  0x3e2666553d916d21U, 0x3dc0bd5e3da19e5aU, 0x3dbe18353c1e7a76U, 0x3dad60c3bad85730U,
  0xbd3b32193da103d5U, 0xb8ae56d63d92e458U, 0x3cb5e5ba3d6204b9U, 0x3dabae0ebccc9242U,
  0x3d84a87b3cd48da2U, 0x3d7e269d3d492ebdU, 0x3d554c68bc1da6c1U, 0x3cda84233d766086U,
  0x3e08d03b3db75f09U, 0x3dd6dc1d3dbfd6cdU, 0x3d8546b23ca7c3c6U, 0xbd2d93093da66493U,
  0x3c83bcaa3de59f02U, 0x3cd2cfe63e188fa3U, 0x3e1a3980bc59844cU, 0x3d9c40693dbc7fecU,
  0xbc58df0c3c393ca7U, 0xbca5ac523d8b95e9U, 0x3ba086f83ccfa72dU, 0x3d9371cd3d3bb8e1U,
  0x3d1cc3243d90b12bU, 0xbc2066623d44447eU, 0x3e0c85ee3d5fb094U, 0x3c0054d73e1dc648U,
  0x3c9c96963db2c331U, 0xbbaa2b993bb9d677U, 0x3dbb1ba33df85e43U, 0xbc4d3c323da63060U,
  0x3d4316bf3d23ec53U, 0x3c974bdc3d534753U, 0x3dc93319bda621cdU, 0xbda3f88cbbcc6155U,
  0x3d28fc15bbf31d18U, 0xbcc103d23d96e266U, 0x3d72630b3ccf144aU, 0xbba6f8b93d4bedfcU,
  0xbdbb71593b81b0c0U, 0xbb1ceff8bb450e85U, 0xbde078babd32f423U, 0xbbaf4090bd3d3b93U,
  0x3cada341bd8e1129U, 0xbd35b132bcf08afdU, 0xbbea3f693ca643c8U, 0xbc8c9cf6bc6a4d37U,
  0x3d618954bd16973eU, 0xbce8a240bcdb28b6U, 0x3d7e210bbb4658b7U, 0xbbbf5e99bc679df0U,
  0x3d639ebebc08c59cU, 0xbddc92a0bd1d8acfU, 0x38819bd93c9e7457U, 0x3c9ea031bd46b7edU,
  0xbcf2eb8e3cfe1793U, 0x3cb3cde0bd473068U, 0x3d1cae8fbd8b1efeU, 0xbd70b9fcbd0e1375U,
  0x3c681b9abcaa88b4U, 0x3d138295bda87835U, 0xbaa049bcbd2302ddU, 0xbce15afbbc8cbe74U,
  0xbd06d2103da9bab2U, 0x3d638e85bd6d9d6aU, 0x3cd424a838a78344U, 0xbd274cb43cfb5b2eU,
  0xbda8e1c0bbf2289eU, 0x3cbe085f3ca861e9U, 0x3cc81fc83d64b097U, 0xbc93e9f9bd6c9810U,
  0x3d28abbbbdcb54a2U, 0xbc516d75bd049c2aU, 0xbd7c8d44bd774010U, 0x3cbb21e03dae60d8U,
  0xbb9bb9e83a9657c4U, 0x3a859ed53b2e7451U, 0x3cbafdf03c625a2bU, 0x3d99609fbce88eafU,
  0xbce4d987bd703f1cU, 0xbcc347bcbe0bfea8U, 0xbd732adcbe146fccU, 0xbd25d27cbd623502U,
  0x3d5fa020bd0175b3U, 0xbd4df3e5bba63b1aU, 0x3d079e9ebbe75230U, 0xbcbcd258bd02cd12U,
  0x3cc55f3abd9b80e7U, 0x3bf0c8e0b8b31478U, 0x3cf2f7133cbe6a11U, 0xbcda332d3b83bb86U,
  0xb96e5807bbabbde5U, 0xbd49d4a1bce70fd5U, 0xbd0881b53d111adeU, 0xbd54d6603bd34e15U,
  0xbc1594acbd16907aU, 0xbce1447fbdbeec1fU, 0x3c4c79723c2d84fcU, 0xbbb276aabda67e07U,
  0x3bdcba343c99d574U, 0xbd17db9abcadf622U, 0xbda6e7e73b1ad7c1U, 0xbd6baaf3bda0b732U,
  0xbc612b24bd645e21U, 0xbd69a799bda7df6eU, 0x3bb4fdb5bdb4482cU, 0xbbe1bef2bd871da3U,
  0x3c5eec8bbd99fd0aU, 0x3c954867baaf8cd7U, 0xbd6242debcb00c8bU, 0xbd980698bc25b47bU,
  0xbc29f09a3b39d4c9U, 0xbdcd49cabcc55cbcU, 0xbd8f52e0bd791184U, 0xbd005301bc3844c0U,
  0xbc4351fabd5e1175U, 0x3d55a4543d61e8d1U, 0xbe415bc73c7677ffU, 0xbc474d2abd1d4643U,
  0x3c33e30ebd358c66U, 0xbd91e0873ca5e579U, 0xbc705c1fbca62744U, 0xbcb3271ebcd9ae56U,
  0xbd97c368bab98d09U, 0xbda6acd43d716861U, 0x3b077a20bcc30698U, 0xbd2ed2733c4544a4U,
  0x3c1d4a43bdd04192U, 0xbd00db44bd478a04U, 0xbd050741bd3665a7U, 0xbd8b5ab3bd32e8b0U,
  0xbd8b92b4bd7e09e5U, 0x3d0ac396bd1fd7c8U, 0xbca92319bd3370efU, 0xbd8a06673d0f5569U,
  0x3d6939b13dc57d56U, 0x3d67102a3cc9af39U, 0x3ce8618b3db1894aU, 0x3d8122f93d7472dcU,
  0x3d5357743daac514U, 0x3d60fca0bc98e0c6U, 0x3d92de60bc0b828aU, 0x3dd0ad0c3d9bd266U,
  0x3dbb13ed3c7f5ef2U, 0x3d9eacd23cfdef63U, 0x3d85ebba3d1746d9U, 0x3d9086c13da40b8dU,
  0x3d15d7f53db80e4bU, 0x3c5de29f3c25c6fdU, 0x3d97fba63ddd4384U, 0x3d9a84f93df231a3U,
  0x3d36bdbe3db03b41U, 0x3e01f5303dffdeceU, 0x3d9145313d8aa594U, 0x3d52cbe23d9a4975U,
  0x3ca3776f3d522a7dU, 0x3daf5dfd3d164536U, 0x3e10cf2a3d74e9f3U, 0x3db827693d15c037U,
  0x3cb97d263a1b419eU, 0x3d6d675b3db1217dU, 0x3db2d2933dd78214U, 0x3d67886b3d3cb89eU,
  0x3daf304f3d97e3ffU, 0x3da3ddaf3dab6e9dU, 0xbb1d74603d36d890U, 0x3dd5ff633d944daeU,
  0x3d59be453d9d031dU, 0x3d9d4a4c3d64e8b8U, 0x3cb3487d3cabc0feU, 0x3d571ac93d1e6f46U,
  0x3dac65c83d7479b9U, 0x3d9a9fda3cbed414U, 0x3d6b5e5b3d69b010U, 0x3bc60d723bb39517U,
  0x3db467c93e0edebeU, 0x3db55b433dd27ef4U, 0x3da39f593d7657c1U, 0x3c5f8b403dcd7c15U,
  0xbaa747de3dd2e873U, 0x3dc710a63dccee5aU, 0x3d5aa2163d37068eU, 0x3e00c6b53d6c24ddU,
  0x3d7cc6b83dd9bf31U, 0x3de0aa6bbc1b4714U, 0x3d3f91c63d5a1cfeU, 0x3d9b255c3c082e3fU,
  0x3cf1ec773d4c6d90U, 0xbbc234de3d897f67U, 0x3db66ec63d86d40bU, 0x3e06ffd93d9059b5U,
  0x3e085f0a3d92121eU, 0x3ceb376d3d8a1605U, 0xbc8c267e3d0d33e7U, 0x3cce81523dc30192U,
  0x3dd2eb5a3da23ad4U, 0x3e091bd93ce48351U, 0x3d1541433d9be217U, 0xbc13761f3d8a77c9U,
  0xbc332b553d7d87eaU, 0x3d9d1f953d972e6aU, 0x3dc37aba3d59136fU, 0x3d8aca253d574ba9U,
  0x3cd19e553da45c11U, 0x3d1873193db43281U, 0x3d8a53533e0148edU, 0x3d3992b33d83ba5cU,
  0x3d02ba6f3d39263dU, 0x3d0438813c88126eU, 0x3cbea0fe3d6ee37aU, 0x3d96b29c3dabe06eU,
  0x3ce014123d2392e9U, 0x3e11a8063dd2f564U, 0x3e1ae2913bef4e7dU, 0x3b1209173dfc818eU,
  0xbc86a4bb3d00dbffU, 0x3d70fcbd3d84e0a4U, 0x3dc0c04d3cc5c910U, 0x3ce1d6bd3d63fc24U,
  0x3cf859b03d603d9eU, 0xbd8d6a153d7b8a41U, 0x3cc5316d3cd2c69fU, 0x3d8496773d830ca1U,
  0x3c9dc9163d8c5cdcU, 0xbbde50f13d0ee67eU, 0x3cb94d143db15b3fU, 0x3d78e26f3dd7de1bU,
  0x3d89b4ca3e0500d5U, 0x3c4692d73d139c7eU, 0x3df4751d3ccc47abU, 0xbc3998fb3dac38acU,
  0x3c4a7eb43d3a6750U, 0x3dc802953c0c88fcU, 0x3cf92be33d76ecc0U, 0x3b48ccd33d12f1d8U,
  0x3d7a69193d7c24b1U, 0x3d94c4013dc9ad2aU, 0x3e028c483d0a95a5U, 0x3ab26ebb3dad7848U,
  0x3db91cd53c8a5844U, 0x3d8a6b033d8250daU, 0x3db83d5e3d0380dcU, 0x3d9ea36d3db5e191U,
  0xbdbc43a33c9b632cU, 0x3d5faf153cdd644eU, 0x3d55794c3d639482U, 0x3c8088ba38ab5339U,
  0xbd8c3ff03d04555eU, 0x3d9c20e93a8add82U, 0xbd2a613c3da8c48cU, 0x3da8b6d1bd2f6fe9U,
  0x3d3023963de3b3a3U, 0x3daa841a3dcbfc26U, 0x3e0237d13db1d087U, 0x3da389f73d5bf791U,
  0x3d197c383cdc6fb0U, 0x3da5b3d73e381ed2U, 0x3d6610483dc5e62cU, 0x3dfd22953dee502aU,
  0x3d6037bdbd44b819U, 0x3d5edd2f3d67e9d2U, 0xbb0d5a233d121c2eU, 0x3dcad1033d36845bU,
  0xbc097ebf3d03c7adU, 0x3d95f3d73c2a2269U, 0x3d3d48b93daa633aU, 0x3d56b05abb052addU,
  0x3d20d6da3d5d3fd0U, 0xbda047cd3d5f5ffbU, 0xbd1d953b3d58a6d2U, 0x3db440fb3d460b94U,
  0x3dad7918ba5cf456U, 0x3dad936f3d375f5cU, 0x3da6966d3da36898U, 0x3db988213d7b83baU,
  0xbd62499d3d9710cbU, 0x3da9d54c3d90e528U, 0x3d54ad4d3da7a656U, 0x3dbc7a76bd9b0228U,
  0xbc24adcf3d2f0a24U, 0x3d82d59a3da21173U, 0x3c0bec96bc9dfaf4U, 0x3d442cfb3da520beU,
  0x3d41cd5abce686a0U, 0x3da9f7dcbdc5dbd2U, 0x3cf08fe53d602f38U, 0x3d5be9fc3d32439cU,
  0x3dad775e3d8cfb89U, 0xbda818313e0c343fU, 0x3cacfa1d3cf83daaU, 0x3d90f0143dc68d92U,
  0xbc078a443dae53d1U, 0x3d071e223de77942U, 0x3d2ed4c63dc59a67U, 0x3d8056d1bd492cbdU,
  0xbbb729153d9799ebU, 0x3dc371123dce2750U, 0x3dcb44d43c9e4b78U, 0x3d8cfb433d071fa8U,
  0xbb43c3ab3d5a8025U, 0x3d83e57aba2a2c7dU, 0x3d8ead3f3d86fae3U, 0x3b9459ddbceeb397U,
  0x3cb84119bc8d16f3U, 0xbd11aee03dc545cfU, 0x3dd88ec33e3d7311U, 0x3db777783db296eaU,
  0x3df438e13d805d4aU, 0xbceac66c390cd163U, 0x3d1bfaec3cf894bdU, 0x3d45b819bd65b77aU,
  0xbb28c92ebc973e14U, 0x3d0eeb303d59e36eU, 0x3d2cc78d3d9388ddU, 0x3c9ba6873d24c7a0U,
